[PAD]
[UNK]
[CLS]
[SEP]
[MASK]
!
"
#
$
%
&
'
(
)
*
+
,
-
.
/
0
1
2
3
4
5
6
7
8
9
:
;
<
=
>
?
@
A
B
C
D
E
F
G
H
I
J
K
L
M
N
O
P
Q
R
S
T
U
V
W
X
Y
Z
[
\
]
^
_
`
a
b
c
d
e
f
g
h
i
j
k
l
m
n
o
p
q
r
s
t
u
v
w
x
y
z
{
|
}
~
©
®
·
‼
⁉
⃣
™
ℹ
↔
↖
↗
↘
↙
∼
⏩
⏪
⏰
⏳
▪
▫
▶
◀
◾
☀
☁
☂
☃
☄
☎
☑
☔
☕
☘
☝
☠
☢
☣
☪
☮
☯
☹
☺
♀
♂
♠
♣
♥
♦
♨
⚒
⚓
⚔
⚕
⚖
⚜
⚠
⚡
⚫
⚰
⚽
⚾
⛄
⛅
⛏
⛑
⛓
⛔
⛪
⛰
⛳
⛴
⛸
⛽
✂
✅
✈
✊
✋
✌
✍
✔
✖
✝
✡
✨
✳
✴
❄
❇
❌
❎
❓
❔
❕
❗
❣
❤
➕
➖
➡
➰
➿
⤴
⤵
⬅
⬆
⬇
⬛
⭐
⭕
〰
ㄱ
ㄲ
ㄳ
ㄴ
ㄵ
ㄶ
ㄷ
ㄸ
ㄹ
ㄺ
ㄻ
ㄼ
ㄽ
ㄾ
ㄿ
ㅀ
ㅁ
ㅂ
ㅃ
ㅄ
ㅅ
ㅆ
ㅇ
ㅈ
ㅉ
ㅊ
ㅋ
ㅌ
ㅍ
ㅎ
ㅏ
ㅐ
ㅑ
ㅒ
ㅓ
ㅔ
ㅕ
ㅖ
ㅗ
ㅘ
ㅙ
ㅚ
ㅛ
ㅜ
ㅝ
ㅞ
ㅟ
ㅠ
ㅡ
ㅢ
ㅣ
㊗
가
각
갂
갃
간
갅
갆
갇
갈
갉
갊
갋
갌
갍
갏
감
갑
값
갓
갔
강
갖
갗
갘
같
갚
갛
개
객
갞
갠
갢
갣
갤
갫
갬
갭
갮
갯
갰
갱
갲
갳
갴
갵
갶
갷
갸
갹
갺
갼
갿
걀
걈
걉
걊
걋
걌
걍
걎
걐
걑
걔
걕
걖
걘
걜
걤
걧
걨
걩
걬
거
걱
걲
걳
건
걵
걶
걷
걸
걹
걺
걻
걼
걾
걿
검
겁
겂
것
겄
겅
겆
겇
겈
겉
겊
겋
게
겍
겎
겏
겐
겒
겓
겔
겙
겛
겜
겝
겟
겠
겡
겢
겣
겤
겥
겦
겧
겨
격
겪
겫
견
겭
겯
결
겱
겳
겴
겵
겷
겸
겹
겻
겼
경
겾
겿
곀
곁
곂
곃
계
곅
곈
곌
곕
곗
곘
곙
곚
곜
곟
고
곡
곢
곤
곧
골
곩
곪
곫
곬
곯
곰
곱
곳
곴
공
곶
곷
곸
곹
곺
곻
과
곽
관
괁
괂
괃
괄
괌
괍
괏
괐
광
괒
괔
괕
괗
괘
괙
괜
괝
괞
괟
괨
괫
괬
괭
괮
괴
괵
괸
괺
괼
굄
굅
굇
굈
굉
굎
교
굑
굔
굗
굘
굚
굠
굡
굣
굤
굥
굦
굨
굫
구
국
굮
굯
군
굱
굲
굳
굴
굵
굶
굷
굺
굻
굼
굽
굿
궁
궂
궃
궄
궅
궆
궇
궈
궉
권
궍
궏
궐
궘
궙
궛
궜
궝
궠
궤
궥
궨
궷
궸
궹
귀
귁
귄
귈
귐
귑
귓
귕
귗
귘
규
귝
균
귣
귤
귦
귬
귭
귯
귱
귴
귷
그
극
귺
귻
근
귽
귾
귿
글
긁
긂
긃
긄
긇
금
급
긊
긋
긌
긍
긎
긏
긐
긑
긒
긓
긔
긕
긘
긜
긤
긥
긧
긩
긬
기
긱
긲
긴
긶
긷
길
긹
긺
긿
김
깁
깂
깃
깄
깅
깆
깇
깈
깉
깊
깋
까
깍
깎
깐
깒
깓
깔
깕
깜
깝
깞
깟
깠
깡
깢
깣
깤
깥
깦
깧
깨
깩
깪
깬
깰
깵
깸
깹
깺
깻
깼
깽
깾
꺀
꺄
꺅
꺆
꺈
꺉
꺊
꺌
꺍
꺑
꺔
꺕
꺗
꺘
꺙
꺚
꺜
꺟
꺠
꺡
꺤
꺨
꺰
꺳
꺴
꺵
꺼
꺽
꺾
껀
껃
껄
껌
껍
껏
껐
껑
껒
껓
껔
껕
껗
께
껙
껜
껠
껨
껩
껫
껬
껭
껰
껳
껴
껵
껶
껸
껼
꼄
꼅
꼇
꼈
꼉
꼌
꼍
꼐
꼤
꼥
꼬
꼭
꼮
꼰
꼳
꼴
꼶
꼷
꼹
꼻
꼼
꼽
꼿
꽁
꽂
꽃
꽄
꽅
꽆
꽇
꽈
꽉
꽊
꽌
꽐
꽙
꽛
꽜
꽝
꽠
꽤
꽥
꽦
꽨
꽹
꾀
꾁
꾄
꾈
꾐
꾕
꾜
꾝
꾤
꾱
꾳
꾸
꾹
꾺
꾼
꾾
꾿
꿀
꿁
꿂
꿃
꿄
꿇
꿈
꿉
꿋
꿌
꿍
꿎
꿏
꿐
꿑
꿓
꿔
꿕
꿘
꿜
꿤
꿥
꿧
꿨
꿩
꿬
꿰
꿱
꿲
꿴
꿸
뀄
뀅
뀈
뀌
뀍
뀐
뀔
뀜
뀝
뀟
뀠
뀡
뀨
뀩
뀪
뀬
뀰
뀸
뀹
뀼
뀽
끄
끅
끆
끈
끉
끊
끋
끌
끍
끎
끐
끓
끔
끕
끗
끘
끙
끚
끛
끜
끝
끟
끠
끤
끨
끰
끵
끼
끽
끾
낀
낂
낃
낄
낋
낌
낍
낎
낏
낐
낑
낒
낔
낕
낗
나
낙
낚
낛
난
낝
낞
낟
날
낡
낢
낣
낤
낥
낧
남
납
낪
낫
났
낭
낮
낯
낰
낱
낲
낳
내
낵
낶
낸
낻
낼
냄
냅
냇
냈
냉
냊
냋
냌
냍
냎
냏
냐
냑
냔
냗
냘
냠
냡
냣
냤
냥
냦
냧
냨
냩
냪
냫
냬
냰
냴
냼
냿
넀
넁
넄
너
넉
넊
넋
넌
넎
넏
널
넑
넒
넓
넔
넖
넗
넘
넙
넚
넛
넜
넝
넞
넟
넠
넡
넢
넣
네
넥
넦
넨
넫
넬
넴
넵
넷
넸
넹
넺
넻
넼
넽
넾
넿
녀
녁
녂
년
녅
녆
녇
녈
념
녑
녓
녔
녕
녖
녗
녘
녚
녛
녜
녝
녠
녤
녬
녭
녯
녱
녴
노
녹
논
녾
녿
놀
놁
놂
놇
놈
놉
놊
놋
놌
농
놎
놏
놐
놑
높
놓
놔
놕
놖
놘
놜
놤
놥
놧
놨
놩
놬
놯
놰
놴
뇀
뇁
뇄
뇅
뇆
뇌
뇐
뇔
뇜
뇝
뇟
뇠
뇡
뇨
뇩
뇬
뇰
뇸
뇹
뇻
뇽
눀
눂
눃
누
눅
눈
눉
눋
눌
눍
눔
눕
눗
눙
눚
눜
눝
눞
눟
눠
눤
눨
눰
눳
눴
눵
눹
눼
뉀
뉄
뉌
뉍
뉑
뉔
뉘
뉙
뉜
뉠
뉨
뉩
뉫
뉭
뉰
뉴
뉵
뉸
뉼
늄
늅
늇
늉
늌
늏
느
늑
늒
는
늕
늖
늗
늘
늙
늚
늜
늟
늠
늡
늣
늤
능
늦
늧
늨
늩
늪
늫
늬
늰
늴
늼
닁
닄
니
닉
닊
닌
닏
닐
닑
닒
님
닙
닚
닛
닜
닝
닞
닟
닠
닡
닢
닣
다
닥
닦
닧
단
닩
닪
닫
달
닭
닮
닯
닰
닲
닳
담
답
닶
닷
닸
당
닺
닻
닼
닽
닾
닿
대
댁
댂
댄
댇
댈
댉
댐
댑
댒
댓
댔
댕
댖
댗
댘
댙
댚
댛
댜
댝
댠
댣
댤
댥
댬
댭
댯
댱
댴
댸
덀
덋
덍
더
덕
덖
던
덙
덛
덜
덝
덞
덟
덣
덤
덥
덦
덧
덨
덩
덪
덫
덬
덭
덮
덯
데
덱
덲
덴
덷
델
뎀
뎁
뎃
뎄
뎅
뎆
뎇
뎈
뎉
뎊
뎋
뎌
뎍
뎐
뎔
뎜
뎝
뎟
뎠
뎡
뎤
뎦
뎨
뎬
뎽
도
독
돆
돇
돈
돉
돋
돌
돍
돎
돐
돓
돔
돕
돖
돗
돘
동
돚
돛
돜
돝
돞
돟
돠
돡
돤
돨
돰
돱
돳
돴
돵
돸
돼
돽
돾
됀
됃
됄
됌
됍
됏
됐
됑
됒
됔
됖
됗
되
됙
된
됝
됟
될
됡
됢
됥
됨
됩
됫
됬
됭
됮
됯
됰
됳
됴
됵
됸
됻
됼
둄
둇
둉
둊
둋
둏
두
둑
둔
둗
둘
둙
둚
둟
둠
둡
둣
둥
둦
둧
둨
둩
둪
둫
둬
둰
둴
둼
둿
뒀
뒁
뒄
뒇
뒈
뒉
뒌
뒘
뒙
뒛
뒜
뒝
뒞
뒤
뒥
뒨
뒫
뒬
뒴
뒵
뒷
뒸
뒹
뒺
듀
듁
듄
듈
듐
듑
듓
듕
듘
드
득
듟
든
듡
듢
듣
들
듥
듦
듧
듨
듩
듪
듫
듬
듭
듯
듰
등
듲
듳
듴
듵
듶
듷
듸
듹
듼
딀
딈
딉
딋
딍
디
딕
딖
딘
딙
딛
딜
딝
딞
딣
딤
딥
딧
딨
딩
딪
딫
딬
딭
딮
딯
따
딱
딲
딳
딴
딷
딸
딹
딻
딿
땀
땁
땃
땄
땅
땆
땈
땉
땋
때
땍
땎
땐
땓
땔
땜
땝
땟
땠
땡
땢
땣
땤
땧
땨
땩
땬
땰
땸
땽
떀
떄
떈
떔
떗
떘
떙
떠
떡
떢
떤
떦
떧
떨
떩
떪
떫
떮
떯
떰
떱
떳
떴
떵
떶
떸
떹
떺
떻
떼
떽
뗀
뗄
뗌
뗍
뗏
뗐
뗑
뗔
뗗
뗘
뗙
뗜
뗠
뗫
뗬
뗭
뗳
뗴
뗵
뗸
뗼
또
똑
똒
똔
똗
똘
똟
똠
똡
똣
똥
똦
똧
똨
똩
똫
똬
똭
똰
똴
똵
똿
뙁
뙇
뙈
뙌
뙛
뙜
뙤
뙥
뙨
뙬
뙷
뙹
뚀
뚁
뚈
뚑
뚕
뚜
뚝
뚞
뚠
뚣
뚤
뚥
뚧
뚨
뚫
뚬
뚭
뚯
뚱
뚷
뚸
뚼
뛀
뛌
뛍
뛔
뛕
뛞
뛧
뛨
뛬
뛰
뛴
뛸
뜀
뜁
뜃
뜅
뜌
뜍
뜐
뜔
뜛
뜜
뜝
뜡
뜨
뜩
뜬
뜮
뜯
뜰
뜱
뜷
뜸
뜹
뜻
뜼
뜽
뜾
뜿
띀
띁
띃
띄
띈
띌
띔
띕
띙
띟
띠
띡
띤
띨
띰
띱
띳
띵
띶
띸
띻
라
락
띾
띿
란
랁
랂
랃
랄
랅
랆
랇
랈
랋
람
랍
랎
랏
랐
랑
랒
랓
랔
랕
랖
랗
래
랙
랚
랜
랟
랠
램
랩
랫
랬
랭
랮
랰
랱
랲
랳
랴
략
랶
랸
랼
럄
럅
럆
럇
럈
량
럊
럌
럏
럐
럑
럔
럕
럖
럗
럣
럤
럥
러
럭
럮
런
럱
럲
럳
럴
럵
럶
럸
럻
럼
럽
럾
럿
렀
렁
렂
렃
렄
렅
렆
렇
레
렉
렊
렌
렏
렐
렘
렙
렛
렜
렝
렞
렠
렡
렢
렣
려
력
렦
렧
련
렪
렫
렬
렴
렵
렷
렸
령
렺
렼
렽
렾
렿
례
롁
롄
롈
롐
롑
롓
롔
롕
로
록
론
롡
롣
롤
롥
롫
롬
롭
롯
롰
롱
롲
롳
롴
롵
롶
롷
롸
롹
롼
뢀
뢈
뢉
뢋
뢌
뢍
뢐
뢔
뢕
뢢
뢧
뢨
뢩
뢰
뢱
뢴
뢸
룀
룁
룃
룅
료
룍
룐
룔
룜
룝
룟
룠
룡
룤
루
룩
룬
룯
룰
룸
룹
룻
룽
룾
뤀
뤁
뤂
뤃
뤄
뤈
뤌
뤔
뤕
뤗
뤘
뤙
뤟
뤠
뤡
뤤
뤨
뤰
뤱
뤳
뤵
뤸
뤼
뤽
륀
륄
륌
륍
륏
륐
륑
류
륙
륜
률
륨
륩
륫
륭
륰
륳
르
륵
른
륹
륻
를
륽
륾
륿
릀
릁
릂
릃
름
릅
릇
릈
릉
릊
릋
릌
릍
릎
릏
릐
릔
릘
릠
릡
릥
릫
리
릭
릮
린
릱
릲
릳
릴
릵
릶
림
립
릾
릿
맀
링
맂
맃
맄
맅
맆
맇
마
막
맊
맋
만
맍
많
맏
말
맑
맒
맓
맔
맕
맖
맗
맘
맙
맚
맛
맜
망
맞
맟
맠
맡
맢
맣
매
맥
맨
맩
맪
맫
맬
맴
맵
맷
맸
맹
맺
맻
맼
맽
맿
먀
먁
먄
먆
먈
먐
먑
먓
먕
먖
먗
먘
먛
먜
먠
먱
머
먹
먺
먻
먼
먽
먾
먿
멀
멁
멂
멈
멉
멊
멋
멌
멍
멎
멏
멐
멑
멓
메
멕
멘
멛
멜
멤
멥
멧
멨
멩
멪
멫
멬
며
멱
면
멵
멶
멷
멸
몀
몁
몃
몄
명
몆
몇
몈
몉
몊
몋
몌
몐
몟
몡
몣
모
목
몪
몫
몬
몯
몰
몱
몲
몴
몸
몹
몺
못
몼
몽
몾
몿
뫀
뫁
뫂
뫃
뫄
뫅
뫈
뫌
뫕
뫗
뫘
뫙
뫠
뫤
뫼
뫽
묀
묄
묏
묑
묘
묙
묜
묠
묨
묫
묭
묯
묰
무
묵
묶
묷
문
묹
묺
묻
물
묽
묾
묿
뭁
뭃
뭄
뭅
뭇
뭈
뭉
뭊
뭋
뭌
뭍
뭎
뭏
뭐
뭑
뭓
뭔
뭕
뭗
뭘
뭟
뭠
뭡
뭣
뭤
뭥
뭦
뭨
뭩
뭪
뭫
뭬
뭭
뭰
뭴
뮁
뮈
뮉
뮌
뮐
뮙
뮛
뮜
뮝
뮤
뮥
뮦
뮨
뮫
뮬
뮴
뮷
뮹
뮼
므
믁
믄
믆
믇
믈
믐
믑
믓
믕
믖
믘
믛
믜
믝
믠
믱
미
믹
믺
민
믽
믾
믿
밀
밁
밃
밅
밇
밈
밉
밊
밋
밌
밍
밎
및
밐
밑
밒
밓
바
박
밖
밗
반
밙
밚
받
발
밝
밞
밟
밠
밡
밢
밣
밤
밥
밦
밧
밨
방
밪
밫
밬
밭
밮
밯
배
백
밲
밳
밴
밷
밸
뱀
뱁
뱃
뱄
뱅
뱆
뱇
뱈
뱉
뱋
뱌
뱍
뱎
뱐
뱓
뱔
뱕
뱗
뱜
뱝
뱟
뱡
뱤
뱥
뱨
뱩
뱰
뱸
뱽
버
벅
벆
번
벉
벊
벋
벌
벍
벎
벏
벐
벓
범
법
벖
벗
벘
벙
벚
벛
벜
벝
벞
벟
베
벡
벤
벧
벨
벩
벰
벱
벲
벳
벴
벵
벶
벷
벸
벹
벼
벽
변
볂
볃
별
볅
볋
볌
볍
볎
볏
볐
병
볒
볓
볔
볕
볖
볗
볘
볜
볠
볭
보
복
볶
볷
본
볹
볻
볼
볽
볾
봁
봄
봅
봆
봇
봈
봉
봊
봋
봌
봍
봏
봐
봑
봒
봔
봗
봘
봙
봟
봠
봡
봣
봤
봥
봦
봨
봩
봫
봬
봰
봴
봽
봿
뵀
뵁
뵈
뵉
뵌
뵐
뵘
뵙
뵛
뵜
뵝
뵤
뵥
뵨
뵬
뵴
뵵
뵹
부
북
붂
붃
분
붅
붆
붇
불
붉
붊
붋
붌
붍
붎
붏
붐
붑
붓
붔
붕
붖
붗
붘
붙
붚
붛
붜
붝
붠
붤
붭
붰
붱
붸
붹
붼
뷀
뷁
뷉
뷍
뷔
뷕
뷘
뷜
뷥
뷩
뷰
뷱
뷴
뷸
븀
븁
븃
븅
븈
븉
브
븍
븐
븓
블
븕
븜
븝
븟
븡
븤
븥
븧
븨
븩
븬
븰
븸
븹
븽
비
빅
빆
빈
빋
빌
빍
빎
빏
빔
빕
빗
빘
빙
빚
빛
빜
빝
빞
빟
빠
빡
빢
빣
빤
빧
빨
빩
빪
빫
빬
빭
빯
빰
빱
빳
빴
빵
빶
빸
빹
빻
빼
빽
빾
뺀
뺃
뺄
뺌
뺍
뺏
뺐
뺑
뺒
뺔
뺕
뺘
뺙
뺜
뺠
뺨
뺩
뺫
뺭
뺴
뺵
뺸
뺼
뻄
뻇
뻈
뻉
뻐
뻑
뻒
뻔
뻖
뻗
뻘
뻠
뻡
뻣
뻤
뻥
뻦
뻨
뻩
뻫
뻬
뻭
뻰
뻴
뻼
뻿
뼁
뼈
뼉
뼌
뼐
뼘
뼙
뼛
뼜
뼝
뼡
뼤
뽀
뽁
뽂
뽄
뽇
뽈
뽐
뽑
뽓
뽕
뽖
뽘
뽚
뽜
뽝
뽠
뽤
뽭
뽯
뽰
뽱
뽷
뽸
뽹
뾀
뾫
뾰
뾱
뾴
뾸
뿁
뿅
뿌
뿍
뿐
뿓
뿔
뿕
뿜
뿝
뿟
뿠
뿡
뿤
뿥
뿨
뿩
뿰
쀄
쀅
쀍
쀠
쀨
쀵
쀼
쀽
쁀
쁄
쁌
쁍
쁑
쁘
쁙
쁜
쁝
쁟
쁠
쁨
쁩
쁫
쁭
쁮
쁴
쁸
쁼
삉
삐
삑
삔
삘
삠
삡
삣
삤
삥
삧
사
삭
삮
삯
산
삱
삲
삳
살
삵
삶
삷
삸
삺
삻
삼
삽
삾
삿
샀
상
샂
샃
샄
샅
샆
샇
새
색
샊
샋
샌
샎
샏
샐
샑
샒
샔
샕
샗
샘
샙
샚
샛
샜
생
샞
샟
샠
샡
샢
샣
샤
샥
샦
샨
샫
샬
샮
샴
샵
샷
샸
샹
샼
샾
섀
섁
섂
섄
섈
섐
섑
섓
섕
섘
서
석
섞
섟
선
섡
섢
섣
설
섥
섦
섧
섫
섬
섭
섮
섯
섰
성
섲
섳
섴
섵
섶
섷
세
섹
섺
섻
센
섿
셀
셁
셆
셇
셈
셉
셋
셌
셍
셎
셏
셐
셑
셒
셓
셔
셕
셖
션
셜
셟
셤
셥
셧
셨
셩
셬
셮
셯
셰
셱
셲
셴
셸
솀
솁
솃
솄
솅
솈
솉
솊
소
속
솎
솏
손
솑
솒
솓
솔
솛
솜
솝
솟
송
솢
솣
솤
솥
솦
솧
솨
솩
솬
솰
솸
솹
솻
솼
솽
쇄
쇅
쇆
쇈
쇗
쇘
쇙
쇜
쇟
쇠
쇡
쇣
쇤
쇨
쇱
쇳
쇵
쇸
쇼
쇽
숀
숄
숌
숍
숏
숐
숑
숔
숖
수
숙
순
숟
술
숢
숧
숨
숩
숫
숬
숭
숮
숯
숰
숱
숲
숳
숴
숵
숸
숼
쉄
쉅
쉇
쉈
쉉
쉌
쉐
쉑
쉒
쉓
쉔
쉕
쉗
쉘
쉙
쉠
쉡
쉣
쉤
쉥
쉨
쉩
쉪
쉫
쉬
쉭
쉰
쉴
쉼
쉽
쉾
쉿
슀
슁
슂
슄
슅
슆
슈
슉
슌
슏
슐
슘
슙
슛
슝
슠
슢
스
슥
슦
슨
슩
슫
슬
슭
슯
슲
슳
슴
습
슶
슷
슸
승
슺
슻
슼
슽
슾
슿
싀
싁
싄
싈
싐
싑
싓
싕
싘
싚
시
식
싞
싟
신
싡
싢
싣
실
싥
싦
싧
싨
싩
싪
싫
심
십
싮
싯
싰
싱
싲
싳
싴
싵
싶
싷
싸
싹
싺
싻
싼
싾
싿
쌀
쌂
쌇
쌈
쌉
쌋
쌌
쌍
쌎
쌐
쌑
쌓
쌔
쌕
쌖
쌘
쌛
쌜
쌤
쌥
쌧
쌨
쌩
쌬
쌯
쌰
쌱
쌴
쌸
썀
썁
썃
썅
썋
썌
썍
썎
썜
썡
써
썩
썪
썫
썬
썯
썰
썱
썸
썹
썻
썼
썽
썾
쎀
쎁
쎂
쎃
쎄
쎅
쎆
쎈
쎌
쎍
쎔
쎕
쎗
쎘
쎙
쎜
쎟
쎠
쎡
쎤
쎳
쎴
쎵
쎼
쎽
쎾
쏀
쏖
쏘
쏙
쏚
쏜
쏟
쏠
쏨
쏩
쏫
쏬
쏭
쏰
쏱
쏳
쏴
쏵
쏸
쏼
쐅
쐇
쐈
쐉
쐐
쐑
쐒
쐤
쐥
쐨
쐬
쐭
쐰
쐴
쐽
쑀
쑈
쑉
쑌
쑛
쑝
쑤
쑥
쑨
쑫
쑬
쑴
쑵
쑷
쑹
쑻
쒀
쒁
쒂
쒄
쒈
쒑
쒔
쒕
쒘
쒜
쒝
쒞
쒭
쒯
쒰
쒱
쒴
쒸
쒹
쒼
쓀
쓈
쓉
쓊
쓋
쓍
쓐
쓒
쓔
쓕
쓤
쓥
쓩
쓰
쓱
쓲
쓴
쓷
쓸
쓹
씀
씁
씃
씄
씅
씆
씇
씈
씉
씊
씋
씌
씍
씐
씔
씗
씝
씞
씟
씡
씤
씥
씦
씧
씨
씩
씪
씬
씮
씯
씰
씳
씶
씷
씸
씹
씺
씻
씼
씽
씾
씿
앀
앁
앂
앃
아
악
앆
앇
안
앉
않
앋
알
앍
앎
앏
앐
앒
앓
암
압
앖
앗
았
앙
앚
앛
앜
앝
앞
앟
애
액
앢
앤
앦
앧
앨
앩
앰
앱
앲
앳
앴
앵
앶
앸
앺
앻
야
약
앾
앿
얀
얂
얃
얄
얅
얆
얇
얉
얊
얋
얌
얍
얎
얏
얐
양
얒
얓
얔
얕
얖
얗
얘
얙
얚
얜
얠
얨
얩
얫
얬
얭
얮
얰
어
억
얶
얷
언
얹
얺
얻
얼
얽
얾
얿
엀
엃
엄
업
없
엇
었
엉
엊
엋
엌
엍
엎
엏
에
엑
엒
엓
엔
엗
엘
엙
엠
엡
엢
엣
엤
엥
엦
엧
엨
엩
엪
엫
여
역
엮
엯
연
엱
엲
엳
열
엵
엶
엷
엸
엻
염
엽
엾
엿
였
영
옂
옃
옄
옅
옆
옇
예
옉
옌
옐
옘
옙
옛
옜
옝
옞
옟
옠
옢
옣
오
옥
옦
옧
온
옩
옪
옫
올
옭
옮
옯
옰
옲
옳
옴
옵
옶
옷
옸
옹
옺
옻
옼
옽
옾
옿
와
왁
왂
완
왅
왆
왇
왈
왉
왐
왑
왓
왔
왕
왖
왘
왙
왚
왛
왜
왝
왠
왤
왬
왭
왯
왰
왱
왲
왴
왶
외
왹
왼
욀
욈
욉
욋
욌
욍
욎
욐
요
욕
욖
욗
욘
욛
욜
욤
욥
욧
욨
용
욪
욫
욬
욭
욮
욯
우
욱
욲
운
욵
욷
울
욹
욺
욻
욼
욽
욿
움
웁
웂
웃
웄
웅
웆
웇
웈
웉
웊
웋
워
웍
웎
원
웑
웒
웓
월
웕
웗
웘
웛
웜
웝
웞
웟
웠
웡
웢
웤
웥
웦
웧
웨
웩
웪
웬
웯
웰
웱
웸
웹
웻
웽
윀
위
윅
윈
윋
윌
윔
윕
윗
윘
윙
윚
윜
윟
유
육
윤
윥
윧
율
윰
윱
윳
융
윶
윷
윸
윹
윺
윻
으
윽
윾
은
읁
읂
읃
을
읅
읆
읇
읈
읉
읊
읋
음
읍
읎
읏
읐
응
읒
읓
읔
읕
읖
읗
의
읙
읜
읟
읠
읨
읩
읪
읫
읬
읭
읮
읯
읰
읱
읲
읳
이
익
읶
읷
인
읹
읺
읻
일
읽
읾
읿
잀
잁
잂
잃
임
입
잆
잇
있
잉
잊
잋
잌
잍
잎
잏
자
작
잒
잓
잔
잕
잖
잗
잘
잙
잚
잛
잜
잟
잠
잡
잢
잣
잤
장
잦
잧
잨
잩
잪
잫
재
잭
잰
잲
잴
잼
잽
잿
쟀
쟁
쟂
쟄
쟆
쟇
쟈
쟉
쟌
쟎
쟏
쟐
쟘
쟙
쟛
쟜
쟝
쟞
쟠
쟡
쟣
쟤
쟥
쟨
쟬
쟴
쟸
쟹
쟼
저
적
젂
젃
전
젅
젆
젇
절
젉
젊
젋
젎
젏
점
접
젒
젓
젔
정
젖
젗
젘
젙
젚
젛
제
젝
젞
젠
젣
젤
젬
젭
젯
젰
젱
젲
젳
젴
젵
젶
젷
져
젹
젺
젼
젾
젿
졀
졈
졉
졋
졌
졍
졎
졏
졐
졑
졓
졔
졘
졨
조
족
졲
졳
존
졵
졶
졷
졸
졹
졺
졻
졽
졿
좀
좁
좂
좃
좄
종
좆
좇
좈
좉
좊
좋
좌
좍
좐
좒
좔
좜
좝
좟
좠
좡
좢
좤
좥
좦
좧
좨
좩
좬
좭
좰
좸
좼
좽
죂
죃
죄
죅
죈
죌
죔
죕
죗
죘
죙
죚
죜
죝
죠
죡
죤
죧
죨
죰
죱
죳
죴
죵
죷
죸
죹
죺
죻
주
죽
죾
준
줁
줂
줃
줄
줅
줆
줈
줉
줋
줌
줍
줏
줐
중
줒
줓
줔
줕
줖
줗
줘
줙
줚
줜
줟
줠
줨
줩
줫
줬
줭
줮
줯
줰
줱
줲
줳
줴
줵
줸
줼
쥄
쥇
쥈
쥉
쥐
쥑
쥔
쥘
쥠
쥡
쥣
쥤
쥥
쥨
쥫
쥬
쥭
쥰
쥴
쥼
쥽
쥿
즁
즂
즄
즇
즈
즉
즌
즏
즐
즘
즙
즛
즜
증
즞
즟
즠
즣
즤
즥
즨
즬
즴
즵
즷
즹
지
직
짂
짃
진
짅
짆
짇
질
짉
짊
짋
짌
짍
짎
짏
짐
집
짒
짓
짔
징
짖
짗
짘
짙
짚
짛
짜
짝
짞
짠
짢
짣
짤
짥
짦
짧
짪
짫
짬
짭
짮
짯
짰
짱
짲
짳
짴
짵
짶
짷
째
짹
짼
짿
쨀
쨈
쨉
쨋
쨌
쨍
쨎
쨐
쨓
쨔
쨕
쨘
쨚
쨜
쨤
쨥
쨧
쨨
쨩
쨬
쨰
쩁
쩃
쩄
쩅
쩌
쩍
쩎
쩐
쩑
쩓
쩔
쩖
쩗
쩘
쩜
쩝
쩟
쩠
쩡
쩢
쩣
쩤
쩦
쩧
쩨
쩩
쩬
쩰
쩹
쩻
쩼
쩽
쪄
쪅
쪈
쪌
쪔
쪕
쪗
쪘
쪙
쪚
쪜
쪠
쪵
쪹
쪻
쪼
쪽
쪾
쫀
쫃
쫄
쫌
쫍
쫏
쫐
쫑
쫒
쫓
쫔
쫕
쫗
쫘
쫙
쫛
쫜
쫠
쫩
쫫
쫭
쫴
쬎
쬐
쬑
쬔
쬘
쬠
쬡
쬬
쬭
쬮
쬰
쬴
쬼
쬽
쬿
쭀
쭁
쭂
쭅
쭈
쭉
쭊
쭌
쭐
쭕
쭘
쭙
쭛
쭝
쭞
쭟
쭤
쭥
쭭
쭵
쭸
쭹
쭻
쮀
쮁
쮑
쮓
쮜
쮝
쮠
쮡
쮤
쮬
쮭
쮱
쮸
쮹
쮼
쯀
쯈
쯉
쯍
쯔
쯕
쯘
쯜
쯤
쯥
쯧
쯨
쯩
쯪
쯫
쯰
쯱
쯴
찅
찌
찍
찎
찐
찓
찔
찗
찜
찝
찟
찠
찡
찢
찣
찤
찦
찧
차
착
찫
찬
찭
찮
찯
찰
찱
찲
찳
찴
찷
참
찹
찻
찼
창
찾
찿
챀
챁
챂
챃
채
책
챈
챊
챋
챌
챔
챕
챗
챘
챙
챚
챜
챠
챡
챤
챦
챨
챰
챱
챳
챴
챵
챶
챸
챻
챼
챽
첑
처
척
천
첝
첞
첟
철
첢
첤
첧
첨
첩
첪
첫
첬
청
첮
첯
첰
첱
첲
첳
체
첵
첸
첼
쳄
쳅
쳇
쳈
쳉
쳊
쳌
쳐
쳑
쳒
쳔
쳗
쳘
쳠
쳡
쳣
쳤
쳥
쳦
쳧
쳨
쳫
쳬
쳰
촀
초
촉
촌
촏
촐
촘
촙
촛
총
촞
촟
촠
촡
촣
촤
촥
촨
촪
촬
촴
촵
촹
쵀
쵁
쵕
최
쵝
쵠
쵤
쵯
쵱
쵸
쵹
쵼
춀
춈
춉
춋
춌
춍
춏
춐
추
축
춘
춚
춛
출
춝
춞
춟
춠
춣
춤
춥
춧
충
춪
춫
춬
춭
춯
춰
춱
춴
춸
췁
췃
췄
췅
췈
췌
췍
췐
췜
췟
췡
췤
취
췩
췬
췰
췸
췹
췻
췼
췽
츀
츃
츄
츅
츈
츌
츔
츕
츗
츙
츠
측
츤
츨
츰
츱
츳
층
츸
츼
츽
칀
칄
칌
칑
치
칙
친
칝
칞
칟
칠
칡
칢
침
칩
칫
칬
칭
칮
칯
칰
칱
칲
칳
카
칵
칸
칻
칼
캄
캅
캆
캇
캈
캉
캊
캌
캍
캎
캏
캐
캑
캔
캘
캠
캡
캣
캤
캥
캦
캨
캪
캬
캭
캮
캰
캴
캼
캽
캿
컀
컁
컄
컈
컛
커
컥
컨
컫
컬
컴
컵
컷
컸
컹
컺
컼
컽
컾
컿
케
켁
켄
켈
켐
켑
켓
켔
켕
켖
켘
켙
켛
켜
켝
켞
켠
켤
켬
켭
켯
켰
켱
켲
켴
켵
켷
켸
콋
콌
코
콕
콘
콛
콜
콤
콥
콧
콩
콪
콫
콬
콭
콯
콰
콱
콴
콸
쾀
쾃
쾅
쾈
쾌
쾍
쾐
쾡
쾨
쾰
쾽
쿄
쿅
쿌
쿔
쿕
쿗
쿙
쿜
쿠
쿡
쿤
쿧
쿨
쿯
쿰
쿱
쿳
쿵
쿸
쿺
쿼
쿽
퀀
퀄
퀏
퀑
퀘
퀙
퀜
퀠
퀭
퀰
퀴
퀵
퀸
퀻
퀼
큄
큅
큇
큉
큌
큐
큑
큔
큘
큠
큡
큣
큥
큨
큩
크
큭
큰
큲
큳
클
큹
큻
큼
큽
큿
킁
킂
킄
킅
킇
킈
킌
킝
키
킥
킧
킨
킫
킬
킴
킵
킷
킸
킹
킺
킼
킽
킾
킿
타
탁
탂
탄
탆
탇
탈
탉
탍
탐
탑
탓
탔
탕
탖
탘
탙
탚
탛
태
택
탟
탠
탣
탤
탬
탭
탯
탰
탱
탴
탶
탸
탹
탼
턀
턋
턍
턐
턔
턕
터
턱
턴
턷
털
텀
텁
텂
텃
텄
텅
텆
텇
텈
텉
텊
텋
테
텍
텐
텓
텔
템
텝
텟
텡
텢
텤
텥
텦
텧
텨
텩
텬
텰
텹
텻
텼
텽
톀
톃
톄
톈
톌
톔
토
톡
톤
톧
톨
톰
톱
톳
통
톶
톷
톸
톹
톺
톻
톼
톽
퇀
퇄
퇏
퇑
퇘
퇙
퇫
퇬
퇴
퇵
퇸
퇼
툄
툅
툇
툈
툉
툌
툐
툥
투
툭
툰
툴
툻
툼
툽
툿
퉁
퉂
퉄
퉅
퉆
퉈
퉌
퉐
퉛
퉜
퉝
퉤
퉥
퉨
퉵
퉷
퉸
퉹
퉼
퉽
튀
튁
튄
튈
튐
튑
튓
튕
튘
튜
튝
튠
튤
튬
튭
튱
트
특
튻
튼
튽
튿
틀
틁
틂
틅
틈
틉
틋
틍
틎
틐
틑
틓
틔
틕
틘
틜
틧
틩
티
틱
틴
틷
틸
팀
팁
팃
팄
팅
팆
팈
팉
파
팍
팎
판
팑
팒
팓
팔
팕
팖
팚
팛
팜
팝
팟
팠
팡
팢
팤
팥
팦
팧
패
팩
팬
팯
팰
팸
팹
팻
팼
팽
퍀
퍄
퍅
퍈
퍌
퍙
퍠
퍡
퍤
퍵
퍼
퍽
펀
펃
펄
펌
펍
펏
펐
펑
펒
펔
펗
페
펙
펜
펠
펨
펩
펫
펭
펰
펴
펵
편
펹
펺
펻
펼
폄
폅
폇
폈
평
폌
폐
폑
폔
폘
폠
폡
폣
폥
포
폭
폰
폳
폴
폼
폽
폿
퐁
퐄
퐅
퐆
퐈
퐉
퐌
퐐
퐛
퐝
퐤
푀
푄
푈
표
푝
푠
푤
푭
푯
푱
푲
푴
푶
푸
푹
푼
푿
풀
풂
품
풉
풋
풍
풎
풐
풑
풒
풓
풔
풕
풜
풩
풰
풱
풴
퓌
퓐
퓔
퓡
퓨
퓩
퓬
퓰
퓸
퓹
퓻
퓽
픂
프
픅
픈
픋
플
픔
픕
픗
픙
픜
픞
픟
픠
픨
픵
피
픽
핀
핃
필
핆
핌
핍
핏
핐
핑
핒
핓
핔
핕
핖
핗
하
학
핚
핛
한
핝
핞
핟
할
핡
핢
핣
핤
핥
핦
핧
함
합
핪
핫
핬
항
핮
핯
핰
핱
핲
핳
해
핵
핶
핷
핸
핻
핼
핽
햄
햅
햇
했
행
햊
햋
햌
햍
햎
햏
햐
햑
햔
햘
햙
햛
햝
햟
햠
햡
햣
햤
향
햨
햩
햫
햬
햭
햰
햿
헀
헁
허
헉
헊
헌
헏
헐
헑
헓
헕
헗
험
헙
헛
헜
헝
헞
헠
헡
헣
헤
헥
헨
헫
헬
헴
헵
헷
헸
헹
헼
헿
혀
혁
현
혅
혇
혈
혐
협
혓
혔
형
혖
혘
혙
혚
혛
혜
혝
혠
혣
혤
혬
혭
혯
혱
혴
호
혹
혻
혼
혽
혿
홀
홁
홅
홇
홈
홉
홋
홍
홎
홐
홑
홓
화
확
홗
환
홙
홛
활
홟
홣
홤
홥
홧
홨
황
홪
홬
홭
홯
홰
홱
홴
횃
횄
횅
회
획
횐
횓
횔
횜
횝
횟
횡
횢
횤
효
횩
횬
횰
횸
횹
횻
횽
훀
훃
후
훅
훈
훋
훌
훍
훑
훓
훔
훕
훗
훙
훚
훜
훝
훟
훠
훡
훣
훤
훨
훯
훰
훱
훳
훵
훻
훼
훽
휀
휄
휏
휑
휘
휙
휜
휠
휨
휩
휫
휭
휴
휵
휸
휼
흄
흅
흇
흉
흌
흏
흐
흑
흒
흔
흗
흘
흙
흜
흝
흟
흠
흡
흣
흤
흥
흦
흨
흩
흫
희
흭
흰
흳
흴
흼
흽
흿
힁
힄
힇
히
힉
힌
힏
힐
힒
힗
힘
힙
힛
힜
힝
힞
힠
힡
힢
힣
️
％
🀄
🅰
🅱
🅾
🆗
🆘
🇦
🇧
🇨
🇩
🇪
🇫
🇬
🇭
🇮
🇯
🇰
🇱
🇲
🇳
🇴
🇵
🇷
🇸
🇹
🇺
🇻
🇼
🇾
🈲
🈳
🉐
🌀
🌂
🌄
🌅
🌈
🌊
🌋
🌍
🌎
🌏
🌐
🌑
🌒
🌓
🌔
🌕
🌖
🌘
🌙
🌚
🌛
🌜
🌝
🌞
🌟
🌠
🌧
🌨
🌩
🌪
🌫
🌬
🌭
🌰
🌱
🌲
🌳
🌴
🌵
🌶
🌷
🌸
🌹
🌺
🌻
🌼
🌽
🌾
🌿
🍀
🍁
🍂
🍃
🍄
🍅
🍆
🍇
🍈
🍉
🍊
🍋
🍌
🍍
🍎
🍏
🍐
🍑
🍒
🍓
🍔
🍕
🍖
🍗
🍘
🍚
🍛
🍜
🍝
🍞
🍟
🍠
🍡
🍢
🍣
🍤
🍦
🍧
🍨
🍩
🍫
🍬
🍭
🍮
🍯
🍰
🍲
🍳
🍴
🍵
🍶
🍷
🍹
🍺
🍻
🍼
🍾
🍿
🎀
🎁
🎂
🎃
🎄
🎅
🎆
🎇
🎈
🎉
🎊
🎋
🎌
🎍
🎎
🎏
🎓
🎖
🎗
🎙
🎡
🎤
🎥
🎧
🎨
🎩
🎪
🎬
🎭
🎯
🎴
🎵
🎶
🎷
🎸
🎹
🎺
🎻
🎼
🏀
🏃
🏅
🏆
🏈
🏊
🏋
🏌
🏏
🏑
🏒
🏓
🏘
🏠
🏡
🏥
🏫
🏭
🏮
🏳
🏴
🏵
🏹
🏻
🏼
🏽
🏾
🏿
🐀
🐁
🐂
🐃
🐄
🐅
🐆
🐇
🐈
🐉
🐊
🐋
🐌
🐍
🐎
🐏
🐐
🐑
🐒
🐓
🐔
🐕
🐖
🐗
🐘
🐙
🐚
🐛
🐜
🐝
🐞
🐟
🐠
🐡
🐢
🐣
🐤
🐥
🐦
🐧
🐨
🐩
🐪
🐫
🐬
🐭
🐮
🐯
🐰
🐱
🐲
🐳
🐴
🐵
🐶
🐷
🐸
🐹
🐺
🐻
🐼
🐽
🐾
🐿
👀
👁
👂
👃
👄
👅
👆
👇
👈
👉
👊
👋
👌
👍
👎
👏
👐
👑
👕
👗
👙
👛
👜
👞
👟
👠
👢
👣
👤
👥
👦
👧
👨
👩
👪
👫
👬
👭
👮
👯
👱
👲
👴
👵
👶
👷
👸
👹
👺
👻
👼
👽
👾
👿
💀
💁
💂
💃
💄
💅
💆
💇
💉
💊
💋
💌
💍
💎
💏
💐
💑
💒
💓
💔
💕
💖
💗
💘
💙
💚
💛
💜
💝
💞
💟
💡
💢
💣
💤
💥
💦
💧
💨
💩
💪
💫
💬
💭
💮
💯
💰
💲
💴
💵
💶
💷
💸
💻
💼
💿
📄
📌
📍
📛
📝
📞
📡
📢
📣
📮
📯
📰
📱
📷
📸
📹
📺
🔅
🔆
🔇
🔈
🔉
🔊
🔎
🔑
🔔
🔕
🔖
🔘
🔜
🔞
🔟
🔥
🔧
🔨
🔪
🔫
🔮
🔲
🔴
🔵
🔶
🔷
🔸
🔹
🔺
🔻
🔼
🔽
🕊
🕯
🕵
🕷
🕸
🕺
🖐
🖕
🖖
🖤
🗑
🗝
🗡
🗣
🗯
🗳
🗽
🗾
🗿
😀
😁
😂
😃
😄
😅
😆
😇
😈
😉
😊
😋
😌
😍
😎
😏
😐
😑
😒
😓
😔
😕
😖
😗
😘
😙
😚
😛
😜
😝
😞
😟
😠
😡
😢
😣
😤
😥
😦
😧
😨
😩
😪
😫
😬
😭
😮
😯
😰
😱
😲
😳
😴
😵
😶
😷
😸
😹
😺
😻
😼
😽
😾
😿
🙀
🙁
🙂
🙃
🙄
🙅
🙆
🙇
🙈
🙉
🙊
🙋
🙌
🙍
🙏
🚀
🚅
🚑
🚒
🚓
🚔
🚗
🚘
🚙
🚢
🚣
🚨
🚩
🚪
🚫
🚬
🚭
🚮
🚯
🚰
🚴
🚶
🚷
🚹
🚼
🚽
🚾
🚿
🛎
🛑
🛠
🛩
🛫
🛳
🤍
🤎
🤐
🤑
🤒
🤓
🤔
🤕
🤖
🤗
🤘
🤙
🤚
🤛
🤜
🤝
🤞
🤟
🤠
🤡
🤢
🤣
🤤
🤥
🤦
🤧
🤨
🤩
🤪
🤫
🤬
🤭
🤮
🤯
🤰
🤲
🤴
🤵
🤷
🤸
🤹
🤺
🤼
🥀
🥁
🥂
🥇
🥊
🥑
🥒
🥔
🥕
🥖
🥗
🥘
🥚
🥝
🥞
🥟
🥣
🥤
🥥
🥦
🥩
🥬
🥰
🥱
🥲
🥳
🥴
🥵
🥶
🥺
🦀
🦁
🦂
🦃
🦄
🦅
🦆
🦇
🦈
🦉
🦊
🦋
🦌
🦍
🦎
🦐
🦑
🦒
🦓
🦗
🦜
🦝
🦞
🦟
🦠
🦢
🦦
🦧
🦮
🦲
🦳
🦴
🦶
🦷
🦺
🧎
🧐
🧓
🧚
🧜
🧟
🧠
🧡
🧢
🧧
🧨
🧴
🧸
🩸
🪓
##c
##k
##l
##i
##n
##무
##늬
##S
##O
##L
##D
##E
##정
##강
##여
##r
##t
##e
##m
##s
##a
##끝
##나
##고
##면
##ㅌ
##ㅋ
##개
##웃
##기
##네
##가
##져
##라
##ㅡ
##ㅁ
##부
##하
##구
##대
##환
##😱
##M
##F
##R
##H
##T
##h
##p
##f
##샤
##ㄲ
##ㅑ
##ㅇ
##아
##치
##A
##X
##전
##증
##이
##살
##어
##o
##y
##갈
##화
##점
##조
##둥
##리
##로
##밀
##를
##I
##B
##던
##건
##진
##햇
##ㅅ
##다
##러
##0
##1
##5
##9
##노
##오
##것
##같
##랄
##에
##서
##u
##d
##금
##융
##g
##더
##붙
##야
##ㅣ
##들
##도
##역
##적
##인
##링
##크
##즌
##질
##모
##르
##b
##태
##빈
##ㅠ
##뮤
##순
##봉
##불
##매
##간
##덜
##내
##긴
##한
##뎈
##파
##잖
##문
##재
##C
##먼
##씨
##방
##세
##는
##거
##냐
##타
##v
##쳤
##따
##함
##봤
##데
##시
##민
##을
##수
##천
##카
##톡
##했
##으
##므
##과
##장
##님
##호
##새
##일
##까
##7
##의
##혹
##만
##손
##자
##발
##팅
##게
##넘
##풀
##미
##국
##그
##놈
##키
##펜
##z
##명
##언
##차
##못
##달
##우
##스
##랑
##녹
##색
##깨
##생
##춘
##보
##단
##쩌
##8
##저
##지
##큰
##분
##열
##먹
##히
##난
##w
##양
##현
##런
##뭐
##G
##K
##엉
##찬
##젊
##때
##남
##럴
##잇
##슨
##승
##찌
##쭈
##병
##영
##해
##ㅎ
##제
##ㅜ
##안
##즇
##졸
##볏
##빠
##👹
##🤬
##🔥
##믿
##니
##앙
##박
##희
##필
##드
##숭
##N
##P
##빵
##꾸
##뎀
##공
##주
##ㄱ
##딱
##응
##려
##동
##체
##종
##실
##록
##잘
##용
##처
##음
##엔
##W
##렐
##은
##뱃
##뇰
##초
##짐
##ㅔ
##괜
##엇
##3
##2
##4
##삐
##쨔
##움
##바
##였
##6
##요
##홥
##꽈
##행
##중
##할
##있
##찾
##없
##ㄸ
##ㅗ
##꺼
##코
##닐
##듯
##🐀
##🐓
##월
##️
##굿
##돕
##반
##늘
##Y
##혜
##신
##j
##뛰
##뻥
##뚤
##물
##받
##ㄹ
##덯
##비
##와
##른
##선
##옥
##셔
##패
##탄
##핵
##쓰
##레
##접
##잕
##윽
##얌
##값
##되
##ㅏ
##낟
##창
##놓
##북
##능
##밭
##🙏
##🏻
##청
##소
##죄
##류
##광
##머
##텅
##ㄴ
##락
##렸
##친
##ㅛ
##눙
##퍼
##ㅉ
##원
##잎
##끼
##당
##🤗
##😂
##임
##편
##좀
##교
##연
##합
##회
##롱
##삘
##독
##덤
##플
##허
##법
##짱
##관
##후
##슬
##ㅂ
##혔
##씝
##케
##덥
##말
##쿠
##욤
##쓸
##럼
##찮
##았
##벌
##판
##쇼
##절
##망
##입
##눈
##철
##채
##향
##식
##웠
##뿐
##돌
##갔
##버
##련
##셨
##산
##띄
##올
##됬
##끄
##탐
##변
##론
##베
##완
##알
##덕
##마
##써
##느
##낀
##쥘
##싸
##포
##뇨
##갑
##렇
##쥭
##옷
##푸
##젯
##닌
##디
##외
##며
##ㅈ
##유
##성
##V
##ㄷ
##규
##갓
##욜
##날
##겠
##뉘
##q
##밥
##짜
##린
##돱
##댓
##글
##젠
##협
##익
##근
##심
##팔
##즈
##집
##많
##백
##똔
##겐
##롴
##트
##덩
##너
##뜨
##눌
##첫
##온
##투
##터
##윤
##표
##끗
##육
##최
##떠
##테
##벨
##좋
##퇴
##출
##줄
##쳐
##몰
##맞
##꼬
##참
##🐖
##🐕
##토
##Q
##겡
##흑
##훅
##클
##됨
##맛
##준
##메
##름
##력
##약
##x
##삼
##썽
##촉
##상
##래
##똥
##넣
##묵
##쌤
##본
##악
##갸
##운
##욕
##퀴
##위
##ㅐ
##격
##감
##프
##렌
##커
##피
##겁
##겨
##학
##봐
##캤
##석
##경
##ㅆ
##두
##뻗
##ㅍ
##햐
##층
##😄
##😌
##놀
##ㅓ
##켰
##침
##팁
##념
##책
##예
##술
##년
##ㅊ
##료
##휴
##뀌
##엽
##눜
##란
##막
##떼
##잉
##줌
##왜
##취
##좌
##빨
##낰
##목
##💕
##🥳
##힝
##빡
##튼
##흐
##뇬
##죽
##굴
##맠
##U
##브
##뱉
##각
##떨
##졌
##군
##슘
##튀
##욱
##통
##애
##몽
##낫
##짠
##좆
##뒈
##십
##톤
##왕
##흠
##사
##블
##루
##쇠
##켜
##급
##돠
##촌
##헐
##옴
##🎵
##🎶
##쇄
##냄
##곳
##즁
##맨
##짓
##픽
##싼
##극
##ㅖ
##털
##검
##봣
##엌
##킨
##섰
##뎅
##누
##넚
##곧
##워
##헤
##령
##작
##품
##람
##잌
##😋
##😛
##😝
##😗
##😚
##즘
##었
##줘
##겔
##싶
##뇽
##압
##총
##립
##텔
##쉬
##믄
##랜
##널
##숑
##됮
##텐
##속
##듣
##잡
##배
##갰
##팡
##곤
##담
##댕
##렁
##뚀
##놔
##계
##쇆
##늦
##폭
##쉐
##늠
##홍
##넬
##궐
##듦
##헉
##앗
##둣
##댐
##싯
##샛
##🇵
##🇺
##🇸
##든
##럽
##멍
##궹
##척
##탓
##냅
##둬
##닫
##슴
##픕
##🐦
##녀
##충
##쐐
##놨
##뷀
##쁘
##뽕
##풍
##습
##멀
##냏
##갱
##겟
##걱
##났
##솨
##됫
##떡
##볶
##얔
##팒
##탱
##슈
##웨
##쎄
##찰
##낙
##😻
##쓴
##궁
##럭
##특
##힌
##👦
##썪
##낼
##봅
##몬
##🎊
##🎉
##휘
##퉛
##효
##룡
##힘
##김
##벅
##복
##림
##냬
##쟴
##얜
##죠
##설
##솔
##꺄
##왠
##뇌
##께
##😁
##👍
##💙
##💃
##됄
##🍬
##답
##웅
##섭
##촐
##앝
##쒸
##착
##랙
##뼈
##웟
##떤
##삶
##엄
##닼
##😢
##츄
##룹
##즤
##팀
##🍛
##😍
##👈
##페
##츠
##헌
##싄
##뿌
##평
##👏
##족
##뼝
##깤
##직
##견
##돈
##또
##롤
##끠
##붕
##꼴
##쌔
##혀
##낌
##쑴
##👊
##💰
##🚀
##🚔
##촵
##쭉
##권
##켈
##잔
##멋
##울
##싫
##껄
##릴
##형
##댇
##춚
##얼
##티
##농
##숨
##측
##훔
##쳑
##뱅
##송
##옹
##엑
##콩
##핑
##섴
##얃
##갗
##띠
##칠
##릇
##액
##축
##딩
##퉁
##헬
##뉴
##길
##묻
##댁
##않
##틀
##씻
##쥬
##빌
##🖕
##😡
##업
##곡
##귀
##욧
##씹
##돼
##냉
##쒯
##똨
##👎
##활
##🇰
##🇷
##볼
##켓
##🌏
##탕
##😰
##셤
##탁
##껏
##얀
##홀
##괴
##읜
##딜
##쟈
##ㅕ
##섹
##깁
##뇸
##쏘
##Z
##씀
##😊
##염
##셋
##롬
##궤
##💚
##😣
##퀘
##잠
##벽
##닥
##뚜
##낭
##닷
##쌬
##됴
##훗
##닏
##캐
##숟
##🌹
##삭
##돔
##즐
##번
##째
##🦜
##🦒
##똘
##쓔
##좃
##왔
##끔
##짤
##량
##쫄
##띨
##범
##쎌
##껠
##랴
##👨
##넹
##츈
##싹
##잃
##퍄
##쌍
##굼
##🏾
##씸
##딴
##👀
##웁
##😲
##혐
##볍
##맘
##콘
##댜
##잼
##렬
##빘
##껍
##킬
##🥶
##쪽
##빛
##쬐
##J
##깝
##옄
##황
##줫
##뭔
##앛
##등
##퐐
##숙
##찍
##겼
##쥔
##객
##쫒
##쟁
##닝
##쒀
##앤
##🏀
##씌
##칙
##흥
##큐
##쯔
##눔
##꼰
##택
##솥
##랔
##꿇
##껌
##켘
##헛
##탑
##뻘
##굉
##🎙
##굳
##앜
##낸
##균
##랬
##녘
##걸
##꺗
##꿔
##셀
##뺏
##된
##랍
##득
##쁜
##싀
##혈
##놬
##쯤
##랭
##랐
##🐶
##삿
##뭄
##욥
##픈
##엣
##꾹
##률
##샘
##긐
##핳
##핰
##례
##듐
##겸
##꾜
##뉜
##춱
##턴
##확
##걀
##꼭
##슁
##쥐
##뿔
##딘
##퉤
##릿
##캡
##슐
##찔
##뚝
##넿
##룸
##슿
##앉
##슆
##뻐
##끌
##킈
##깐
##겅
##웞
##랎
##뱔
##졍
##륭
##골
##잣
##긋
##💓
##💖
##💗
##😭
##렵
##뜌
##탈
##챦
##추
##귁
##쬎
##닭
##찜
##뎌
##욬
##졋
##빼
##칰
##꾼
##뜰
##암
##큼
##겹
##녁
##찣
##틸
##잍
##좨
##뜯
##결
##폐
##멸
##갖
##징
##쁠
##헠
##랫
##억
##쪄
##렴
##둠
##졓
##샀
##텼
##션
##딸
##돋
##듀
##🕯
##닊
##잊
##왘
##퍽
##퇵
##꿀
##별
##묜
##항
##떻
##쌀
##닮
##됐
##쪼
##덮
##깡
##먄
##혼
##💌
##💣
##💥
##옿
##🤣
##핸
##폰
##씬
##낳
##딧
##닉
##뺐
##및
##텍
##턱
##델
##넵
##폴
##엎
##숔
##쟌
##뤠
##뻔
##뼛
##썬
##궈
##칸
##썩
##센
##셜
##밍
##👉
##셧
##둔
##깟
##걍
##훈
##핮
##앴
##벼
##밸
##💜
##존
##먕
##맟
##떀
##맼
##끊
##쫌
##엊
##💝
##ㅝ
##댈
##홈
##짖
##렉
##릭
##쉽
##껀
##쿤
##🦉
##엠
##셈
##뷔
##쾌
##쵸
##넼
##꽃
##냥
##켤
##깃
##땜
##삡
##늣
##멩
##쮸
##늨
##쉰
##쟎
##폼
##넨
##뽑
##냨
##썌
##숴
##콤
##샙
##첼
##깥
##벙
##휼
##둑
##넠
##긔
##흔
##될
##혁
##칭
##쇅
##빙
##뱍
##😇
##펄
##꿍
##찐
##ㅃ
##셩
##댸
##젤
##밈
##ㅒ
##틱
##컵
##팈
##랗
##콧
##똑
##첩
##췄
##캬
##컄
##밟
##샷
##줭
##삲
##괘
##횬
##랅
##봄
##쨉
##녯
##쌈
##🌚
##훼
##밤
##쉑
##낱
##앵
##첨
##곰
##빔
##끛
##둘
##뎡
##탭
##쪕
##샊
##뚱
##빚
##땃
##릉
##욘
##꽐
##꿈
##앞
##챙
##빤
##옵
##읏
##밋
##🐷
##겈
##🏼
##썰
##씁
##ㅟ
##논
##뽤
##콜
##😠
##😬
##즉
##닦
##🖐
##팩
##렷
##탠
##깔
##🍮
##🌰
##🇨
##🇳
##🤝
##냈
##🧡
##좊
##쒰
##💐
##🌸
##힐
##듕
##춥
##📣
##꼼
##춰
##킹
##뒤
##튜
##밬
##횰
##샅
##쩔
##왱
##🙊
##곀
##뱀
##땅
##듵
##닙
##틈
##핥
##엘
##쳡
##볻
##룰
##😤
##쎈
##둰
##😃
##뽀
##됏
##껴
##꺠
##귤
##뮬
##율
##얘
##쨈
##힉
##긱
##뎄
##먀
##🍕
##🔞
##쩍
##엨
##뭉
##믁
##챱
##💞
##턔
##뜡
##돗
##🤐
##펌
##섬
##굽
##겆
##땨
##🥀
##🌺
##🌻
##🌼
##촛
##몇
##숲
##듬
##쯍
##뚕
##쩡
##짴
##묘
##틴
##끈
##쌓
##옘
##횽
##칩
##밑
##걔
##쉣
##갘
##엥
##냔
##왓
##납
##옆
##촤
##롸
##쉨
##랏
##횡
##험
##씮
##녆
##짝
##🍒
##칼
##몸
##꿰
##띵
##삯
##쳣
##녈
##폄
##😘
##윈
##겉
##맹
##슝
##뀨
##🍺
##🥰
##냇
##씩
##샄
##썻
##끓
##푀
##룬
##😐
##컬
##🇯
##눼
##곸
##먾
##젓
##듈
##뜩
##녔
##흘
##쿼
##킄
##잩
##깬
##젖
##햔
##쭙
##🆘
##댘
##싱
##뜬
##뎃
##깜
##텀
##뤃
##깸
##쇟
##멘
##죹
##듭
##랰
##붓
##쩐
##콸
##뤼
##츌
##춪
##싡
##앚
##샠
##옛
##걷
##렼
##콴
##😕
##뤄
##컸
##렘
##💟
##🙆
##🏽
##ㅢ
##🤮
##쨕
##🌱
##🤛
##엿
##왈
##얍
##꿘
##윗
##곱
##😉
##쌰
##룽
##챵
##😨
##빹
##컷
##짬
##싷
##뜻
##갷
##닛
##릅
##룔
##쬬
##쭤
##높
##푼
##읍
##핡
##픔
##귕
##솬
##냌
##샎
##낂
##얂
##팝
##슥
##뗘
##쭁
##🌙
##🌟
##뷰
##맙
##딥
##땡
##🐽
##🎻
##😓
##줏
##벗
##🤯
##짢
##콬
##쨌
##🙃
##뎉
##삽
##쒞
##밎
##😞
##💘
##쑈
##🍾
##👟
##튬
##믕
##뎐
##밧
##컴
##😆
##맣
##뉩
##쁑
##씐
##뭘
##쉔
##솜
##쿵
##끕
##섡
##쬭
##퀼
##쟝
##쑥
##꿕
##꿎
##쑤
##벲
##즹
##💋
##맥
##펼
##😳
##먜
##넌
##🎗
##쿳
##뗀
##넁
##츙
##탆
##뚠
##븨
##딤
##넷
##뒝
##뭰
##풜
##솟
##잨
##쏸
##롼
##짼
##껬
##긓
##댄
##넉
##펑
##쎅
##🐁
##쩜
##좭
##뵈
##꼳
##쉼
##넝
##쿨
##💦
##👩
##췬
##깈
##햌
##눠
##넫
##몌
##낮
##💮
##🔪
##템
##풉
##돤
##셥
##샨
##쎔
##핏
##쭐
##텨
##봘
##🥲
##댔
##킥
##🤩
##륜
##쏴
##⭐
##퉈
##륵
##👋
##붛
##얄
##쫀
##렝
##딹
##럿
##👿
##벤
##끜
##💛
##힙
##맄
##괄
##🐧
##뢔
##젱
##껰
##캨
##봥
##좡
##😎
##얽
##떳
##뽄
##찝
##랂
##깉
##찹
##숩
##껐
##낧
##랋
##잟
##돓
##앓
##갆
##닳
##🍡
##😀
##틍
##옐
##깅
##🛎
##🎤
##낄
##줍
##🎧
##빴
##슙
##뮈
##덴
##쩝
##짭
##맵
##펙
##획
##퓹
##밉
##쿡
##빽
##꾤
##쭵
##흄
##쇜
##💔
##혠
##샆
##쑨
##꿧
##랩
##숏
##졐
##밖
##뢰
##찯
##됩
##떄
##펴
##깼
##찢
##셰
##앱
##탬
##🍭
##촨
##컨
##셉
##놤
##👐
##🧴
##캍
##훤
##펀
##🇬
##풰
##🍑
##깍
##곪
##툰
##렀
##👽
##늑
##ㅄ
##컥
##룩
##궸
##뜸
##탸
##멧
##냦
##🐯
##뷸
##죡
##눕
##젝
##웆
##샐
##댠
##팰
##햬
##쿄
##ㅞ
##햄
##빱
##😅
##빝
##튕
##켕
##앨
##죳
##🐎
##싴
##놐
##잏
##듷
##헨
##🦝
##녕
##닢
##긁
##읽
##흙
##샹
##뭋
##헹
##듫
##넜
##옅
##샏
##퐁
##펠
##샌
##렙
##쌩
##옌
##흉
##줒
##툼
##븐
##늙
##🐱
##띁
##🔅
##😵
##밌
##낗
##췃
##팍
##톨
##촹
##탔
##홓
##씔
##갠
##🤪
##뛸
##뷱
##ㄺ
##뤁
##🌶
##큨
##멜
##뺠
##밗
##첸
##줴
##뀰
##🦷
##퓨
##윙
##섀
##붉
##갚
##땀
##겻
##쎤
##꼈
##톱
##쟘
##볗
##쏩
##🏃
##괕
##😜
##🇼
##🤒
##😷
##👅
##덱
##좝
##쪗
##놋
##팽
##닿
##롯
##👥
##👤
##싕
##🤜
##킴
##🐰
##켯
##슼
##늌
##춤
##큭
##딬
##쇵
##🦇
##얻
##왴
##꿲
##샴
##훨
##뢈
##략
##컼
##귐
##🐣
##뚫
##핬
##낯
##🐥
##🐇
##🐹
##🐸
##🕊
##픜
##🇧
##셲
##🐼
##🐔
##🐺
##좁
##꽁
##🤭
##🔨
##🐴
##🌈
##🌷
##쥑
##듩
##앏
##🌛
##퇘
##밝
##🍲
##첬
##쉥
##죻
##흡
##끅
##넴
##칀
##첞
##😏
##칫
##듸
##🙋
##🙌
##👧
##낋
##👸
##🍃
##닠
##뻴
##웡
##퉄
##뀐
##깽
##뛨
##땈
##맬
##👶
##흣
##캅
##깎
##챗
##듑
##긍
##뵹
##귄
##겜
##앟
##쌖
##잽
##맷
##쟤
##☀
##❣
##굫
##뻑
##겪
##웽
##쉴
##램
##힠
##낏
##쑉
##😖
##멤
##뗭
##킝
##젇
##웤
##잦
##꺆
##섶
##헷
##ㄾ
##펭
##캠
##셓
##샬
##촣
##🥊
##🤴
##🥇
##👑
##🎹
##🎸
##🕺
##뱌
##힣
##픅
##귝
##쿸
##섺
##💯
##궄
##줬
##붜
##ㄶ
##☘
##✨
##핟
##🏑
##먿
##얏
##🌞
##놩
##🤸
##뺌
##줈
##늄
##듁
##띤
##🍀
##켵
##녜
##뭏
##뤔
##싁
##쌉
##삥
##븅
##낚
##쥰
##췅
##눰
##⛔
##럳
##빰
##쏟
##켔
##즛
##🐮
##챸
##퉷
##휑
##🤘
##뫄
##👌
##좇
##섳
##턍
##💧
##륩
##넥
##헴
##띃
##핀
##껭
##윷
##킼
##🤢
##😩
##햤
##헝
##웬
##뿜
##뻨
##잋
##떵
##핍
##🍨
##🍖
##🎂
##맿
##붑
##떰
##뺴
##뺨
##슷
##릏
##🙈
##팸
##벵
##냘
##츤
##긑
##쉘
##뺘
##섯
##쌱
##퀀
##딳
##죸
##🕸
##캉
##😑
##😧
##😦
##😴
##뙇
##댬
##🎺
##콰
##뭇
##멈
##↙
##쫘
##🍈
##🔴
##삳
##믹
##땩
##뮌
##챤
##쐬
##먠
##얠
##🙂
##잭
##🌳
##뿰
##곃
##왼
##탴
##숫
##땐
##싞
##쟠
##땁
##묹
##킷
##썅
##웩
##뱆
##좦
##웈
##룻
##💀
##쎴
##벱
##헿
##웰
##킵
##뗌
##냠
##읠
##츼
##뇐
##ㅀ
##늗
##딕
##휩
##껕
##릐
##ㅙ
##🎄
##🍊
##쎜
##쌌
##🥩
##🤍
##큇
##춫
##🔫
##뢀
##냣
##💎
##맜
##숯
##빅
##죗
##싢
##쫑
##늉
##깻
##룟
##뤕
##꽝
##섞
##헣
##뺑
##촬
##닺
##🇱
##돛
##겎
##궉
##🌊
##🌵
##벉
##죤
##봇
##밣
##빕
##콕
##셕
##럐
##밴
##💪
##넓
##볐
##갬
##푹
##젹
##뿡
##렛
##챠
##팬
##햅
##🏮
##🎀
##뽁
##멱
##쯘
##쪙
##붤
##옮
##뽝
##웜
##챃
##겢
##💩
##🍻
##봨
##왤
##🇲
##옶
##쒜
##뤀
##걌
##퀸
##켬
##🎆
##🎋
##쒼
##뻬
##몆
##읔
##킁
##젼
##롳
##🙅
##찻
##셍
##큘
##샵
##🦑
##욛
##옽
##졷
##뭥
##쓉
##흏
##칞
##롭
##몄
##샞
##낒
##✳
##븍
##멏
##🖤
##덧
##🧨
##🎇
##엏
##캣
##쟇
##핫
##믱
##몹
##댑
##죈
##굔
##첵
##봌
##썼
##싵
##넛
##⚾
##⚽
##뗏
##쉒
##겤
##뿝
##몀
##좩
##🏿
##믈
##죵
##댱
##륙
##롷
##켸
##꿨
##갛
##늧
##흟
##엋
##쳅
##춐
##🍄
##뮥
##첱
##룐
##쨍
##쳇
##뫙
##괙
##쪵
##곁
##🦆
##뿟
##캥
##😔
##💅
##몃
##팻
##톼
##뫗
##둡
##🐩
##콱
##🦅
##쟜
##굶
##귱
##꿬
##핯
##걑
##뱐
##샂
##곴
##츰
##슏
##쇤
##쎙
##꽂
##갯
##쌥
##섷
##쩨
##둨
##🐂
##🐃
##됑
##🚷
##띡
##뤘
##죺
##놧
##겧
##팟
##쌕
##냡
##뻣
##옻
##랸
##줠
##믾
##🤟
##🍏
##쭘
##뾰
##쫙
##샡
##똫
##짮
##댒
##핪
##싮
##닚
##닶
##낔
##봊
##🎡
##튠
##🦋
##🍂
##🌲
##🍁
##🌴
##🌿
##젛
##팤
##🤤
##캄
##칵
##🥁
##쉭
##츨
##쨩
##훌
##곽
##폈
##졉
##쾨
##숸
##쟉
##쓱
##샥
##🐭
##🐵
##뿅
##얗
##젔
##🦊
##볠
##얶
##샼
##쭝
##돨
##⏩
##맇
##곌
##륑
##쉿
##튭
##꽥
##짘
##렄
##썹
##찡
##콥
##슛
##쭊
##퀄
##볌
##쏀
##젭
##돜
##흩
##👁
##💤
##뙤
##랖
##앆
##꼽
##귈
##촪
##셐
##슉
##롄
##쑝
##뉵
##뽂
##땟
##🥺
##꿁
##닾
##릌
##핼
##캌
##꿩
##😈
##됭
##괸
##귴
##꿑
##뼁
##섲
##캮
##뤰
##뻉
##쀼
##쾅
##쳔
##🐒
##냑
##궂
##🤑
##쎀
##🏥
##🌄
##뱨
##🙉
##ㄻ
##끽
##🦃
##뀪
##쎍
##🍆
##♀
##♂
##텡
##🦍
##🦧
##🦮
##붭
##촥
##붐
##쿜
##깠
##🚑
##껫
##됀
##꼻
##뤤
##팜
##뒷
##샜
##녓
##뎨
##곺
##욯
##짧
##렠
##♣
##♨
##👣
##짛
##밨
##딨
##엡
##뵤
##랒
##셑
##륨
##뺔
##겄
##씰
##🤚
##렣
##쏭
##🙍
##쮜
##홉
##굥
##횹
##흗
##풋
##굘
##꽆
##쪹
##뜐
##붇
##뵛
##댤
##꺔
##쬽
##😥
##룝
##윅
##얫
##읰
##솤
##홗
##봑
##쎼
##😒
##찿
##튓
##툇
##뀔
##걘
##셱
##럄
##뽈
##곶
##쀠
##햏
##븥
##톰
##텈
##젅
##썁
##🤕
##맡
##갹
##굲
##쇽
##쟹
##냰
##걩
##🌝
##빗
##햣
##쨋
##앂
##뚯
##뮨
##븀
##😙
##윾
##👺
##꽤
##🍉
##쏙
##썸
##갤
##볕
##겦
##눀
##멕
##ㄽ
##텟
##닸
##씯
##샟
##몫
##🚫
##긘
##홧
##🗡
##👾
##ㅘ
##🐉
##믜
##🚼
##뻤
##졔
##릎
##뻰
##📍
##💭
##⚫
##뽜
##앖
##💉
##💊
##얹
##펫
##괍
##욌
##뮴
##뱟
##읺
##🌪
##꼐
##랠
##툭
##훙
##뇻
##옳
##🤎
##튤
##싳
##놉
##뗄
##똬
##묭
##밪
##숰
##🚨
##샣
##깰
##🤞
##🤫
##🤔
##쿧
##⬇
##🇭
##🇦
##🇩
##🇪
##🇫
##🇮
##👂
##텆
##횐
##엮
##읂
##꺊
##떶
##옺
##퉸
##잿
##🍇
##뉸
##읻
##켁
##윌
##껑
##혿
##엍
##쁨
##껵
##힢
##쥴
##🐗
##흨
##켄
##돸
##웍
##댭
##댗
##😫
##닽
##똵
##꾿
##딲
##괞
##흰
##쪘
##놂
##뒛
##🚾
##볭
##쳥
##쮑
##읓
##쒝
##휜
##넏
##슄
##캔
##쏠
##쫠
##🎅
##🤰
##🐤
##🏡
##🔼
##걺
##킿
##🏓
##쳌
##팥
##읋
##벰
##긕
##🍎
##컹
##쏳
##쿰
##🇹
##룍
##둫
##쟄
##퍌
##쳬
##벳
##돵
##셒
##읭
##짹
##뱡
##럤
##슌
##괭
##붘
##밯
##빫
##잤
##쐰
##옇
##툅
##훠
##횟
##뉀
##쫩
##쯜
##읉
##뼉
##헙
##맂
##🍶
##🎈
##🤵
##롥
##꺅
##🍹
##틔
##맑
##🚘
##쿱
##샦
##ㅚ
##렪
##쨜
##툐
##벚
##녱
##릮
##넞
##뷴
##닪
##뎠
##둉
##럻
##퍵
##덍
##렺
##륽
##앀
##떧
##퍅
##ㄳ
##죙
##튁
##📡
##쪅
##줅
##낍
##🌜
##쨀
##핧
##🐫
##뾱
##쥣
##탹
##☃
##텥
##촴
##셸
##렫
##빳
##꼇
##뒹
##옜
##깊
##셴
##텝
##샑
##뭡
##쑵
##씽
##젴
##쟂
##🍞
##챔
##첟
##텬
##뀈
##🤲
##🔎
##🐈
##젘
##졻
##🚽
##갇
##깓
##💨
##틉
##풒
##롹
##긌
##읎
##짚
##톈
##췁
##괨
##껼
##놑
##곷
##🦠
##엃
##츳
##❤
##볓
##🍅
##🍋
##🍍
##🥑
##🥒
##숀
##옫
##옝
##쉅
##🚿
##귯
##👄
##렆
##땠
##쬰
##햿
##딪
##혓
##삣
##칻
##🕷
##봏
##쳨
##🌭
##🤡
##췌
##윳
##땬
##뗑
##눞
##💇
##🐾
##🎷
##뒀
##깢
##샇
##🌬
##🌧
##퉜
##죰
##뭫
##덨
##굻
##🐍
##⚡
##☔
##▫
##쿗
##눅
##솽
##놕
##녇
##끙
##쯪
##쟞
##샋
##늰
##뻄
##헥
##쵁
##츔
##럾
##낑
##🦴
##셁
##쭛
##뙈
##퇑
##걕
##렿
##쌧
##땔
##🍢
##듓
##잙
##탤
##봫
##얭
##셆
##쓥
##뛕
##👇
##묠
##됙
##닣
##졀
##힛
##🌎
##🌍
##틋
##덖
##홨
##얺
##꽉
##옼
##😶
##뫀
##텁
##좈
##샸
##귿
##🐚
##폽
##늫
##썀
##붹
##솧
##앁
##쫍
##🎬
##🎼
##렡
##믠
##⭕
##섁
##🆗
##칲
##뮝
##챻
##넙
##첑
##😮
##먁
##쐨
##댝
##흫
##죴
##옃
##쎁
##쥼
##읒
##렂
##볽
##짉
##룀
##햡
##팧
##닞
##퓌
##갼
##뎋
##믓
##쌴
##앍
##즞
##둿
##쭞
##✡
##쯉
##괫
##🤓
##롰
##떱
##킅
##묶
##👬
##샚
##🏅
##읈
##왂
##큉
##맩
##꺽
##쎠
##얊
##쳊
##🍿
##🙁
##꽌
##뺄
##💫
##퀵
##쌸
##즙
##겍
##몾
##🤹
##뤡
##퐈
##훟
##쌨
##🐏
##얇
##🥕
##🐑
##뫌
##왝
##웹
##🔆
##졨
##늖
##뫈
##뺀
##젲
##쓤
##🔕
##쭌
##퓰
##꺌
##톄
##뛧
##뭣
##🤧
##댯
##걐
##뒺
##낎
##텤
##📯
##떽
##륻
##읶
##귣
##툽
##딍
##벡
##찭
##🎁
##🍚
##🍰
##🍳
##🥘
##🥞
##🥣
##쫛
##홐
##룜
##좉
##🐙
##줔
##섘
##😾
##듧
##쉤
##옠
##챨
##🍜
##🐜
##곬
##잰
##얐
##픙
##낢
##🐅
##🐲
##👮
##뎁
##럅
##뉠
##쏜
##🖖
##🏆
##젎
##🤨
##🐛
##섵
##덛
##빢
##맀
##꺵
##젬
##흌
##퐝
##씊
##👴
##🦂
##굚
##됌
##🍦
##섻
##툥
##읕
##👗
##갺
##뱰
##읅
##낵
##듨
##👃
##놥
##늡
##👫
##👭
##랈
##햨
##귬
##짞
##앰
##퐉
##앎
##킫
##✊
##✌
##🧟
##옧
##쁄
##궆
##퉼
##🥵
##윕
##휸
##둴
##찧
##👞
##줮
##뤙
##👼
##땋
##닧
##픂
##텃
##⚰
##뤈
##🌕
##욷
##챕
##혬
##갲
##넺
##뚁
##챈
##🍤
##🐝
##🦗
##🦟
##🐌
##휠
##끚
##💑
##💏
##👪
##😟
##낻
##좸
##짫
##쟏
##췸
##젆
##🐘
##☝
##뵙
##밦
##멐
##🦓
##🦌
##🐆
##🐪
##앳
##줼
##줳
##먈
##쉓
##꽄
##굵
##찼
##횔
##꾀
##됔
##푠
##🤺
##🔻
##톌
##뒘
##놰
##뺙
##헼
##찱
##뭦
##챊
##첪
##퍀
##늅
##쉙
##퓐
##햑
##몯
##뛴
##랃
##켠
##🤦
##덬
##춌
##낪
##🧸
##땤
##쪠
##💍
##긧
##탼
##💶
##💷
##홱
##퇫
##💢
##핔
##풐
##홰
##픗
##퓻
##촘
##쫐
##늕
##왲
##틐
##뭍
##똒
##렅
##츅
##😪
##빧
##컿
##땍
##끆
##깄
##럈
##맴
##곗
##귾
##뷁
##걉
##튿
##빻
##👠
##탣
##🥝
##밠
##븁
##앸
##퇸
##📸
##📷
##쥥
##👕
##촟
##쫗
##삑
##딿
##챌
##쎳
##갞
##뇀
##쩬
##쭭
##꼉
##팠
##풔
##훀
##🏵
##툴
##짔
##덟
##쩦
##솰
##쒘
##👙
##탯
##띰
##죷
##즏
##톹
##죱
##푈
##잆
##엢
##괬
##챰
##🙀
##뱈
##궨
##셯
##싣
##욮
##꾱
##곘
##뼜
##❄
##뻒
##큥
##뀽
##옸
##핌
##꿋
##얬
##됍
##➰
##륀
##롐
##🥂
##뤌
##휙
##쯥
##꺙
##쉌
##뉍
##뢴
##꽜
##읗
##볜
##릾
##춍
##🐄
##굨
##믐
##븓
##뒌
##겣
##뉑
##쟨
##녠
##잁
##꽹
##쨰
##윸
##윘
##뭬
##뫁
##뜽
##쯫
##켐
##긷
##냼
##뜀
##뻠
##퍠
##캇
##겊
##컁
##뀍
##귓
##🇾
##잗
##놖
##힁
##븜
##꿉
##📢
##🚩
##퇏
##벓
##왭
##밞
##츕
##🌀
##삔
##꼌
##뉨
##챡
##맺
##쌜
##🙄
##🇴
##괔
##뭊
##밐
##꿏
##붠
##😽
##쏱
##웉
##🍣
##💵
##💸
##💴
##뫼
##짆
##댙
##벜
##힇
##🚬
##틑
##🎭
##🎍
##왖
##륫
##👯
##핶
##밢
##뇩
##깺
##🎌
##럇
##첯
##잂
##쯧
##낃
##엦
##붸
##쵹
##떴
##솓
##🚙
##🚗
##👻
##긩
##맒
##랓
##눗
##🧐
##샗
##녗
##🍘
##🍝
##🍷
##🍴
##뒞
##덫
##겋
##🧚
##👵
##긃
##뜅
##멌
##씋
##쿯
##♥
##🔊
##🗽
##🥬
##섫
##덝
##딝
##헑
##딣
##딞
##덣
##솛
##곯
##둙
##쟀
##쵝
##롫
##큳
##웱
##곜
##헸
##뎬
##햘
##퇬
##낡
##띱
##혘
##횃
##톻
##잴
##줋
##윱
##꽦
##줨
##헵
##🍓
##닜
##륍
##촞
##↘
##핱
##춭
##돰
##쿌
##푯
##📌
##홑
##펏
##뀩
##햊
##🙇
##릳
##굅
##팎
##쵀
##겓
##퉝
##썃
##얨
##🥥
##첳
##턋
##녅
##쳦
##줃
##썡
##웧
##컈
##싑
##🐟
##궙
##🌔
##🌓
##🌖
##🌘
##👆
##맊
##삮
##헫
##촙
##섣
##🐿
##렜
##녑
##🗣
##짷
##횝
##젏
##뀜
##엤
##쏨
##듹
##뷍
##숌
##엀
##쟛
##윜
##쎃
##쁫
##쒑
##쐴
##촠
##펐
##🍧
##찓
##텢
##걲
##✖
##꺀
##믘
##퀑
##칯
##탘
##댴
##앋
##셬
##🤙
##럑
##켴
##춉
##뼌
##돡
##얎
##뎦
##쇙
##쯕
##듢
##🔵
##👷
##륌
##븡
##톳
##듥
##샾
##😹
##찷
##벖
##🚓
##슫
##슽
##춬
##🚢
##깆
##☢
##😯
##깂
##껒
##웝
##궏
##솸
##젒
##뻡
##띈
##짙
##붖
##덭
##쑹
##쒹
##퀙
##뜹
##씼
##긬
##뀸
##쩅
##붗
##껩
##쫕
##뱩
##읃
##컽
##쫜
##뇜
##🌋
##꾕
##쒱
##탖
##🍌
##얖
##쐤
##🧠
##뀝
##캭
##벏
##핞
##솝
##👛
##옰
##읆
##뗴
##듴
##띾
##룅
##꽊
##쳈
##퍙
##즨
##🍗
##댚
##🦁
##엙
##쥨
##맏
##🧧
##둗
##쀅
##픵
##꼍
##뢋
##짵
##븟
##🥴
##좍
##🦐
##🦀
##🐞
##챀
##왐
##🤷
##💲
##슾
##봆
##퓔
##븰
##똭
##뎊
##댖
##넊
##벸
##귘
##읖
##됼
##놊
##맚
##얓
##껔
##벞
##멓
##훜
##🔶
##🔹
##녛
##솈
##랼
##넽
##옙
##잒
##챘
##쾡
##췽
##뽓
##뭨
##🔧
##팢
##쮭
##🐡
##🐠
##갅
##👱
##싿
##쁍
##뉭
##짣
##엾
##띔
##뿍
##삻
##뎔
##꼮
##꽙
##🀄
##⚔
##🗯
##🚴
##릈
##뗔
##윰
##즠
##쿕
##믽
##앻
##쫏
##☺
##쩟
##🌾
##왁
##🔉
##🌠
##갵
##짯
##섕
##켑
##윔
##엩
##🔸
##솹
##앢
##뫃
##🤥
##뒨
##윶
##뢩
##끤
##갂
##섑
##씤
##엳
##훱
##탙
##옂
##닻
##끐
##꿜
##떙
##뜾
##궜
##왅
##멬
##낕
##홇
##칮
##🔮
##쥡
##줜
##숮
##🏳
##쏼
##🦶
##쁭
##욋
##욹
##🔑
##욪
##넢
##🍼
##맸
##힜
##훑
##멶
##쯨
##갴
##큽
##퉌
##껜
##쮹
##츃
##ㄵ
##랱
##빸
##뮛
##넾
##릠
##삾
##덷
##겝
##풕
##큑
##첮
##💂
##읩
##🏠
##퉅
##숳
##줰
##쎆
##핢
##퐌
##휀
##뉼
##퀰
##찎
##폿
##땄
##푝
##뚑
##뗍
##엪
##🐢
##썎
##떔
##빋
##짒
##쒕
##똩
##퓡
##뮜
##웋
##뚬
##🎃
##챴
##땸
##벋
##헜
##쨘
##쮝
##쓲
##걊
##꾺
##흅
##뺵
##굱
##🏒
##븈
##💄
##🍟
##눴
##튱
##쐉
##눳
##뢱
##뭌
##랳
##걋
##⚒
##갢
##꿐
##짲
##쩓
##눤
##됵
##챽
##슭
##🔺
##🔇
##읁
##퀻
##🛠
##솦
##윀
##놜
##폇
##숵
##쨥
##🛩
##빟
##먗
##🇻
##큌
##뱄
##⤴
##쾈
##😺
##짗
##놌
##릁
##펩
##턐
##😼
##찟
##솼
##렦
##삷
##😿
##봬
##엧
##쒴
##❓
##❗
##컛
##🧢
##끾
##웓
##됟
##몈
##씺
##뀼
##왑
##캑
##❕
##슺
##쥄
##럖
##귻
##욲
##쩩
##웦
##땝
##꼥
##늚
##숧
##걜
##릔
##쓍
##쮠
##낲
##탉
##롁
##깋
##퓽
##떈
##맽
##퉥
##꺾
##쟙
##묀
##꿱
##뿨
##웂
##춋
##듄
##셌
##딛
##넒
##볃
##둄
##팄
##꽛
##🚶
##밚
##콯
##섄
##뱽
##꿂
##쉉
##뚭
##훕
##핃
##헞
##🍩
##뿁
##죧
##톧
##흦
##💻
##💿
##탰
##딋
##뜝
##섮
##🗝
##팛
##💆
##볘
##붚
##덪
##엗
##뵜
##댣
##흼
##퍈
##늩
##뺭
##꼿
##쮀
##얒
##쥽
##춧
##슯
##🍫
##홬
##젙
##겯
##삤
##웊
##녾
##쪾
##숱
##홛
##읹
##뵵
##∼
##😸
##넋
##🎎
##뢧
##쿙
##놘
##꺜
##햩
##샕
##휄
##쉡
##븽
##깞
##곻
##튄
##벐
##씦
##싩
##챜
##즄
##🅱
##큩
##궝
##끋
##핝
##횸
##똰
##궠
##쟥
##뱸
##됗
##뷩
##갮
##췍
##쥉
##뽐
##💬
##굣
##숍
##🅾
##졎
##끟
##앲
##몼
##횻
##▶
##줙
##씈
##둪
##섈
##렏
##껸
##멉
##덲
##혴
##숄
##뱝
##넗
##깧
##뫠
##틎
##솉
##좜
##🎨
##벟
##쫃
##턷
##뎟
##죨
##뤽
##녂
##좽
##씡
##뱁
##칬
##틧
##⬆
##젺
##긒
##즥
##🥗
##돟
##훽
##꽇
##찤
##뽱
##렊
##🍔
##♠
##싺
##롣
##엲
##듳
##짰
##눟
##봍
##잚
##🌐
##겂
##텋
##퉽
##짇
##쩠
##뤵
##쓐
##붝
##쉗
##뙛
##쳫
##퉹
##뾴
##젋
##🚣
##뵥
##🥚
##홋
##왆
##슩
##힄
##캘
##🪓
##🩸
##빩
##벍
##럵
##땽
##☎
##텰
##뛔
##롶
##싲
##💒
##걖
##닩
##끘
##🔟
##뢌
##쉩
##뢍
##튐
##씍
##앾
##뙨
##럱
##🍠
##졏
##춈
##돚
##🌒
##쨤
##얩
##줗
##뮐
##쯩
##킌
##❎
##껗
##폥
##🔔
##낞
##햠
##럏
##쇡
##읫
##📱
##맆
##젗
##🦄
##깩
##🗿
##즬
##륏
##늼
##쬑
##컾
##🐋
##🐳
##궥
##솒
##쟐
##읙
##왛
##즜
##셇
##쎕
##촏
##듲
##괌
##똴
##캽
##켙
##◀
##겇
##뱗
##뼤
##꿥
##졶
##✅
##쫴
##좒
##묨
##갣
##쎵
##맗
##떸
##뽷
##🎯
##괼
##냤
##꿌
##딀
##잪
##쌋
##귑
##돞
##싈
##멎
##쳘
##켛
##혚
##뺫
##풩
##궷
##궍
##멊
##쑬
##룯
##샢
##🗑
##횄
##됃
##궅
##잫
##갭
##힞
##뙥
##🎴
##뎍
##뭈
##푱
##쳗
##봗
##빜
##쁀
##곈
##📝
##📰
##쪈
##걨
##컫
##🚮
##읇
##🍯
##싰
##✂
##킾
##윺
##좔
##펍
##텻
##렞
##졈
##팦
##됰
##쾐
##핦
##쾍
##먐
##갊
##쫓
##얅
##짌
##쩢
##셎
##뀬
##럌
##펔
##텇
##쫭
##옾
##늪
##쇳
##힡
##텽
##썜
##섓
##깒
##됻
##굑
##팃
##🔷
##믇
##뎽
##뜍
##냫
##읬
##🗾
##싐
##랲
##🔲
##풓
##껙
##욻
##씄
##뇹
##밡
##둟
##췡
##잧
##꺟
##뭅
##쥠
##🎖
##🐻
##궘
##쒂
##랚
##씅
##픞
##봡
##궃
##⛓
##놁
##샃
##딷
##쏖
##🅰
##툉
##켱
##햋
##몐
##퉵
##엫
##🚰
##뀠
##톽
##팼
##긹
##뢸
##늴
##켖
##☠
##🥦
##끨
##볷
##슶
##욍
##퐤
##뵨
##쁙
##햛
##죜
##웄
##췟
##똦
##🦞
##뼐
##꿃
##큔
##쎡
##챳
##븤
##뚥
##럥
##좤
##젰
##묽
##🌽
##뽠
##🌅
##얾
##쯈
##븝
##뭑
##뙷
##짊
##쟼
##팓
##🎥
##📹
##낐
##슂
##굮
##읿
##🛫
##쒄
##톸
##풱
##쌑
##렧
##쀍
##핕
##쩽
##🐨
##묫
##🍐
##🦈
##떢
##탚
##럔
##쌘
##릋
##굡
##윻
##큿
##멪
##🌨
##⛪
##탂
##돾
##퉨
##뜃
##첲
##끵
##딭
##괵
##🚭
##뀡
##앐
##쏫
##앃
##🏘
##궛
##뗳
##풎
##늤
##췻
##캈
##놏
##쿅
##뒉
##댂
##뜜
##솢
##뎝
##넄
##믝
##띙
##눍
##🤖
##핤
##줐
##뵁
##뱤
##쪚
##쓷
##긲
##펨
##ㄼ
##걈
##맍
##펵
##🐐
##🏹
##퓸
##챂
##챶
##햍
##띿
##굗
##쩖
##뵌
##귗
##⛏
##뵐
##껨
##횤
##쯰
##켭
##퇄
##챁
##덋
##픟
##🕵
##홭
##멂
##꿓
##밫
##컺
##퓬
##🏋
##즴
##쌯
##쾰
##쇱
##좂
##넖
##펰
##긏
##칢
##띶
##웎
##섐
##늇
##싪
##픠
##🎪
##헏
##굠
##♦
##륿
##뼘
##⤵
##빯
##쿽
##쉈
##슢
##뎆
##줕
##녤
##붊
##믖
##훃
##◾
##큣
##춟
##뷉
##흒
##갌
##섦
##🚒
##벊
##봠
##볂
##🍵
##븩
##꼅
##🏴
##돳
##먖
##봦
##🏌
##엸
##🏫
##🥤
##봩
##뱋
##씾
##녭
##윋
##핒
##쳰
##쐇
##랶
##왚
##뤱
##쭟
##쇣
##낶
##✴
##뱕
##⏰
##앿
##쵕
##녴
##궇
##햫
##쌐
##럕
##덀
##씟
##핻
##됒
##닯
##찅
##뒬
##겭
##❔
##럆
##푭
##똗
##슠
##훻
##읾
##칱
##닁
##삉
##봔
##딫
##🚹
##럸
##캦
##싥
##챼
##훋
##▪
##걶
##곩
##↖
##틁
##큡
##🥔
##㊗
##몉
##뒙
##뷜
##✋
##뽯
##⬛
##괮
##앶
##뻭
##씪
##얰
##붱
##🔈
##릊
##🔖
##쎗
##걬
##뾸
##좢
##펗
##읊
##븃
##쬮
##툿
##멵
##쎂
##솩
##🧜
##💡
##🉐
##🔽
##묙
##뗐
##엓
##듰
##튻
##섧
##찴
##랟
##맔
##퀭
##섟
##뮹
##햰
##깣
##쥤
##뗵
##쩻
##붂
##🌑
##엒
##롑
##쐑
##쬡
##❌
##읐
##딉
##🤼
##얕
##몿
##췤
##뉰
##젿
##짦
##🐊
##🦢
##붆
##쫔
##냊
##쨐
##돝
##쩗
##췩
##턀
##🎓
##왹
##앩
##🏭
##흭
##뚞
##🛳
##쐈
##쁸
##헀
##쁌
##죕
##홪
##눝
##⛄
##뭎
##🏏
##잀
##✔
##뽭
##칑
##롕
##튽
##줉
##쳉
##슅
##쨬
##폅
##긤
##튘
##쀨
##춛
##늟
##➡
##밁
##솁
##뒁
##🦎
##📮
##뺸
##콋
##뗫
##쑌
##찫
##⚖
##혛
##깇
##쟣
##퀜
##욐
##빶
##뒥
##쏰
##됳
##뜔
##밮
##®
##켝
##팉
##웇
##쉠
##뭭
##꺕
##옭
##🚪
##쮬
##쪔
##왬
##졹
##싘
##녬
##쬿
##췐
##싟
##꾾
##뛍
##쳠
##쁟
##륄
##☹
##뽸
##틘
##눚
##☣
##줂
##짳
##틷
##얋
##폌
##쩄
##틩
##귽
##횅
##훯
##뷘
##듼
##쀄
##쨚
##맻
##🥖
##붋
##줸
##젾
##ㄿ
##쮤
##쁮
##묰
##춴
##왙
##귭
##꺘
##넎
##붌
##맋
##끍
##춸
##🤠
##삠
##촡
##돍
##싧
##렃
##벘
##눂
##🐬
##📞
##갉
##묏
##먘
##봙
##쵼
##듘
##얚
##뮦
##헕
##혤
##넦
##싓
##넡
##돆
##븸
##쩃
##싨
##긇
##킇
##긿
##넟
##뭤
##🚯
##푶
##웛
##꽠
##밳
##눋
##롲
##🔜
##뺩
##똿
##욀
##뗙
##쪌
##떪
##밷
##뇁
##☕
##솑
##꽅
##룾
##긶
##칡
##봒
##📺
##믆
##닡
##냍
##릘
##쭕
##뫘
##냪
##졲
##쪻
##욭
##꾈
##콪
##숼
##뮼
##볋
##💁
##뭗
##묄
##넸
##훵
##걤
##뇄
##줩
##삵
##벝
##멷
##팕
##첰
##쎾
##👲
##굎
##덦
##퐄
##뫂
##툈
##🧓
##맪
##릫
##둦
##밊
##휭
##볹
##풑
##썾
##☪
##뇅
##뤨
##뢕
##릍
##슀
##킽
##뺃
##짥
##냩
##썋
##쳄
##딖
##쌛
##쎽
##꼹
##빍
##맅
##홯
##뚸
##빬
##꿄
##틓
##랇
##첝
##🚅
##🌩
##줯
##봟
##줵
##쬼
##먓
##겾
##굄
##👢
##겥
##📛
##⛽
##얷
##죌
##꽨
##뽖
##랕
##슦
##쿔
##쉫
##쬴
##줆
##풂
##갫
##놇
##🈳
##뢐
##솎
##혖
##쇈
##뮷
##쀵
##욨
##옯
##✈
##🌂
##췜
##쥿
##🗳
##뎇
##웻
##↗
##빆
##쁩
##좄
##ℹ
##볅
##럊
##쟬
##딻
##쩧
##욵
##뱜
##닰
##튈
##눵
##햟
##앧
##쩰
##푿
##뤸
##걾
##댛
##냗
##팹
##⬅
##깪
##쇗
##탍
##돴
##짶
##볔
##큻
##곙
##떫
##핣
##갋
##쭹
##룤
##괒
##녚
##🦲
##헁
##읪
##톷
##뮁
##갃
##옦
##벎
##쇘
##숬
##쫫
##휵
##꾁
##줟
##👜
##⏪
##쓋
##쐒
##쉄
##쁝
##츱
##홁
##렾
##굇
##탛
##쮁
##툻
##뗠
##뙜
##딮
##춯
##굷
##뿕
##텉
##©
##캏
##졺
##좧
##쑛
##듡
##좟
##뤂
##웸
##먱
##뺍
##쬔
##멨
##걹
##갿
##싾
##꺍
##띀
##핖
##➖
##뛌
##🎏
##짏
##띸
##왉
##쯱
##틕
##훳
##솀
##❇
##븉
##룠
##횩
##뎤
##퐆
##듶
##묑
##겒
##뽇
##띟
##졳
##깦
##줓
##듪
##갏
##뽘
##뻩
##띳
##닑
##훰
##흽
##몪
##폑
##씃
##쏵
##퉐
##벹
##씆
##욖
##뵘
##쵠
##웢
##섿
##🏊
##쎘
##퇼
##뚼
##씳
##젷
##쁴
##쓈
##뾀
##혣
##닟
##뀟
##굈
##혭
##뱥
##⚓
##괐
##잛
##쮼
##먆
##솄
##욈
##☁
##땰
##죾
##뒄
##곹
##곂
##꼄
##⚕
##뵴
##닲
##앺
##굤
##긎
##숖
##걿
##핽
##졽
##텄
##🏈
##꼤
##쓊
##얿
##🎩
##텊
##닄
##왰
##캎
##콛
##뮙
##뇡
##☄
##🥟
##뿠
##똣
##홟
##🦦
##닒
##쥈
##꺈
##칳
##팆
##큠
##뱎
##💼
##긜
##덞
##뤳
##쐅
##⛑
##뼡
##흿
##믑
##탇
##돖
##텂
##🌫
##옟
##뭠
##볖
##텧
##엷
##➿
##앦
##챚
##굯
##좠
##졑
##혱
##웑
##⛴
##걳
##쾽
##륳
##륰
##쌎
##릥
##죔
##푲
##뭕
##댥
##쀽
##힏
##뒜
##솏
##튝
##졵
##뗬
##쭂
##귷
##읲
##캊
##넔
##꾝
##젃
##햭
##핚
##둧
##괁
##밙
##햙
##긂
##훓
##빾
##🈲
##퇀
##츀
##흤
##픋
##찠
##꺳
##젚
##챋
##쾃
##✝
##땎
##쭥
##왇
##뮉
##뀅
##솅
##븹
##뷥
##걧
##콭
##톺
##먽
##똡
##칟
##⚠
##읳
##쬘
##얙
##칄
##짃
##쩎
##끰
##큲
##췼
##썍
##똠
##둏
##쒈
##죚
##릡
##봁
##팯
##욫
##꿤
##헡
##햎
##읨
##멥
##걵
##즷
##뉔
##텓
##쪜
##쩹
##헗
##혝
##됡
##먻
##귺
##긊
##뎜
##뵬
##밇
##퇙
##캴
##🛑
##뛀
##쁼
##퓩
##괂
##깾
##댉
##읮
##볎
##잢
##싚
##쯀
##좐
##삸
##큅
##뀹
##넑
##쓩
##껳
##꺡
##훝
##폔
##녖
##냧
##젞
##뙬
##떩
##퉆
##믺
##떺
##뜱
##핗
##밲
##돽
##겛
##짅
##샒
##촀
##둇
##쨧
##갳
##젵
##뢨
##겿
##낤
##떮
##뼙
##쳒
##렢
##엻
##훡
##롔
##괟
##쵤
##푤
##롈
##뤗
##놴
##퐛
##뿩
##랆
##텹
##씿
##뜼
##꿴
##뉌
##혙
##넀
##↔
##뮫
##놎
##🧎
##늏
##릲
##낝
##볒
##쨓
##밓
##쇸
##흇
##읯
##벩
##봋
##훍
##밒
##쿺
##쩘
##뺜
##쬠
##쓒
##™
##짋
##벆
##혇
##휨
##쑷
##믛
##줱
##☑
##륐
##잲
##뽹
##칝
##녿
##붏
##묺
##킂
##쟸
##홅
##쏚
##뫅
##봽
##췰
##풴
##붰
##맫
##킺
##눉
##룁
##콫
##샫
##쥇
##핐
##겱
##컀
##핛
##벧
##흜
##캿
##뒫
##묯
##뚣
##륾
##딙
##팖
##맃
##냎
##휏
##옣
##둼
##폳
##쐥
##퍤
##몡
##뇔
##떯
##툌
##칌
##롓
##눃
##뚷
##엵
##럣
##찲
##뙹
##돐
##몊
##츗
##홣
##죝
##봈
##뢉
##🥱
##큄
##뿤
##섂
##졘
##뙁
##붃
##빏
##뉄
##둩
##섥
##쮱
##붔
##웪
##톶
##욺
##흴
##랮
##🔘
##뉙
##줚
##슳
##읟
##꺴
##긥
##츸
##⛳
##욼
##셏
##괝
##섢
##⏳
##켷
##뛬
##푴
##텩
##짂
##낣
##깕
##즂
##뱓
##놯
##웗
으로
에서
##니다
한다
ㅋㅋ
아니
사람
는데
라고
까지
20
우리
에게
국민
지만
면서
나라
다고
다는
대한
생각
한국
습니다
10
라는
그러
된다
해야
지금
부터
때문
이런
정부
보다
일본
문제
으면
해서
위해
지난
이나
중국
대통
그런
##렇게
대통령
그래
하나
그리
지역
19
사업
진짜
경제
##00
이상
기업
미국
민주
사회
정치
시간
만들
이제
##니까
다른
처럼
가지
경우
대해
문재
시장
아이
필요
입니다
지원
국가
어서
인데
정도
북한
이번
인간
그리고
위원
통해
따라
자신
들어
교육
대표
가능
서울
사실
합니다
는지
세계
그냥
201
관계
아닌
도록
너무
는다
이름
한테
조사
다시
##대로
모르
함께
시작
세요
해라
200
문재인
많이
의원
다가
어요
자기
조국
정권
위한
상황
관련
정신
그렇
모두
어떻
이렇게
##주의
경기
가장
니까
정말
어야
다음
민주당
아무
소리
검찰
나오
연구
네요
프로
시키
인가
모든
무슨
그래서
투자
문화
라도
아직
여기
계획
30
기사
국회
밝혔
12
얼마
##민국
어떤
그것
대한민국
개발
기술
해도
같이
결과
그렇게
이미
##지만
정책
선거
수준
대학
사용
보이
그러나
11
여자
100
이용
거나
어떻게
마음
이유
사이
지지
어디
자유
재앙
인지
없이
이후
조선
학교
관리
오늘
국내
못하
현재
전문
근데
계속
대상
더라
돌아
이야
하지만
진행
산업
15
장관
특히
바로
피해
운영
경찰
이게
수사
그럼
아서
시민
다면
운동
얘기
중요
당신
후보
회사
활동
정보
댓글
올해
동안
##로나
내용
18
려고
자리
언론
한다는
ㅎㅎ
지난해
이해
세금
이것
코로나
기관
학생
시스
잘못
가족
사건
이러
방송
사진
대구
최근
도시
시스템
한다고
세상
아야
##소리
삼성
역시
이야기
과정
평가
##어나
책임
여러
다니
나가
으며
생활
##스트
새로
여성
시켜
모습
결정
금융
설명
역사
##거리
누구
을까
저런
보여
사랑
처음
다양
라면
최고
##레기
교수
라며
기자
단체
##비스
환경
기준
떨어
ㅠㅠ
쓰레기
시대
추진
##다고
으니
대로
남자
이날
만큼
나타
어느
부분
관계자
그만
그런데
개인
어려
얼마나
이어
좌파
관심
주장
예정
서비스
기록
50
누가
구나
영화
방법
제품
제대로
업체
##스크
발전
공개
의미
결국
확인
은데
참여
가격
당시
국제
준비
새끼
기대
발생
##머니
보수
시설
일반
##라고
보내
지방
잖아
##부터
먼저
인정
언제
대해서
##갱이
##시아
규모
##다는
반대
부산
아주
직접
OO
검사
25
박근
자체
미래
따르
빨갱이
머리
지요
사고
위원회
성장
또한
일부
##운데
더니
정상
생산
박근혜
입장
선수
나온
13
물론
얼굴
상대
청와
현실
제발
청와대
현대
발표
새로운
전체
병원
16
개혁
센터
경쟁
상태
제공
외국
##인다
전국
내려
요구
판매
친구
노동
뉴스
정의
능력
마련
14
알려
주민
는가
부모
기간
또는
위해서
포함
안전
가운데
지나
의견
행사
노력
조작
회장
하루
해결
인터
완전
공산
아요
중심
그게
이거
아닌가
##er
##러운
효과
밖에
무엇
분석
예산
거리
인사
해외
최대
마다
소비
말씀
17
지적
힘들
만나
이랑
제도
마스크
증가
감독
건강
어도
40
구성
은행
거기
못한
광주
##무원
확대
조금
아파
주택
##레이
자동
나요
거짓
들어가
구조
실제
회의
성공
고객
려는
공동
버리
행동
올라
범죄
특별
경영
##가리
어린
엄마
활용
행정
감사
강화
기본
전쟁
당연
##라도
가치
유지
ㅉㅉ
내년
의료
바이
보험
상품
빨리
변화
집단
판단
##랜드
영향
그녀
걱정
##그램
##천지
아들
관광
대회
더욱
분야
대부
기회
설치
김정
치료
해당
스타
스럽
공무원
직원
##버지
여행
봐라
##on
중앙
##자리
프로그램
선택
방식
따른
요즘
개선
똑같
통합
신천지
이건
자식
존재
조직
본인
건설
##ㅋㅋ
보호
의사
처리
강조
자연
한편
그때
그래도
서로
달러
전화
##구나
대책
대부분
추가
현장
미친
21
공부
로서
##린다
개월
업무
대비
드러
##시다
거든
만든
나와
거래
찾아
총선
##스로
절대
선동
24
바라
적용
위원장
전략
##의원
여론
예상
전망
역할
아파트
탄핵
나왔
199
권력
스스로
경험
나이
인천
위기
비판
지도
##진다
구속
보인다
##없이
기존
거의
더불
과거
도움
표현
실시
적극
금지
작품
환자
우선
수출
##으며
이라고
외교
500
계약
부정
복지
엄청
##라이
행위
국회의원
##in
##가지
공사
과학
##러스
정당
부동
투표
결혼
차이
##마트
신청
위험
건데
대응
일단
##너지
방문
22
오후
지속
자료
기능
세월
기억
그룹
주변
해야지
고려
부담
느냐
협력
보도
출신
부동산
자동차
이익
비교
평화
목표
상승
##리아
게임
##동안
시행
는구나
비롯
이전
더라도
아라
이루
텐데
봐야
23
전문가
비용
조성
교회
확보
이모
단계
전부
건가
아베
그거
기다
못했
배우
처벌
부족
조정
주요
공간
아버지
공급
규정
만드
##돼지
조치
친일
오히
이사
사태
소득
오히려
관한
넘어
사항
지켜
마지
##라인
선정
##나라
다르
사장
집중
공정
##an
어라
감염
어렵
바람
우려
자금
보고
확실
독재
올리
당하
혼자
개정
행복
인생
개돼지
사과
분명
교통
에선
일자리
선생
목적
안정
60
##려고
##이트
그대로
사라
감정
사무
마지막
노조
불법
ㅡㅡ
대신
##어난
##전자
유치
공장
습니까
로부터
한심
27
진정
누리
마을
##럼프
26
수익
인터넷
총장
아님
가져
민족
작업
##en
시기
으로서
##기업
살아
트럼프
주식
대출
공공
논의
28
중소
겁니다
상당
300
재판
세력
통신
단지
지구
으면서
전혀
충분
글로
어쩌
이하
그걸
유럽
방안
구만
순간
장애
시험
신문
와서
##심히
규제
매출
시즌
의식
예술
종교
##한다
대단
##티콘
청년
이모티콘
하고
목소리
신고
가짜
전자
공격
글로벌
생명
##드시
대체
평균
예요
던데
주인
해요
반드시
합의
브랜드
재산
세대
변호
가진
청소
따라서
영업
아마
앞서
##세요
에요
다만
협의
가정
증거
논리
##이스
공연
됩니다
김정은
제일
##디어
검토
음식
자한
가까
여야
70
인권
혁신
아무리
돼지
제주
지급
그러니까
##ti
국정
카드
려면
장기
고요
스마트
이래
확진
으니까
건지
제시
##or
시절
돌아가
도대
인식
오래
도입
소비자
ㅜㅜ
핵심
떠나
분위
고민
움직
제기
대가리
의혹
야당
가구
도대체
각각
신경
너희
한당
최소
으로써
매우
입국
거짓말
사기
지키
희망
전기
이뤄
동시
참석
작가
인상
법무
어찌
한데
달리
제작
원래
피해자
괜찮
수입
종합
음악
승리
##이터
열심히
토착
독립
##일보
무능
노인
##른다
##al
고용
비리
광고
본다
정확
주제
임금
느낌
##자기
29
소속
분위기
재정
그럴
차지
대화
저희
인기
LG
에너지
자격
인물
수도
적폐
진보
질문
사례
등록
혐의
듯이
##조건
의해
밝혀
사망
고자
개최
연기
자는
##ar
그러면
노래
수요
나온다
업계
외국인
열린
통일
무조건
대선
사상
성과
그동안
일정
응원
전시
롯데
모양
안타
##수록
##es
남편
왜구
##어지
그랬
구축
개념
영상
마치
아침
지난달
파악
당장
펀드
하늘
방향
기획
시청
도로
지정
감소
모델
발견
반영
시킨
##아들
달라
체험
항상
오전
나쁜
이젠
차량
지식
어려운
진실
어머니
인구
한다면
그건
드라
위치
비슷
보였
대변
그림
부르
원인
차례
무시
심각
80
제한
마시
자본
체계
자원
기반
궁금
인해
대전
갑자기
31
각종
내부
디자
교사
최초
발언
반면
전통
줘야
아냐
기타
영국
차원
논란
께서
드리
서민
일어나
집회
나중
할까
나서
바뀌
요청
난리
조건
SK
살인
냐고
느끼
TV
오르
이동
가입
자산
확산
제외
높이
정리
건물
끼리
민주주의
민간
황교
연금
도와
뭔가
취업
여부
##어들
훈련
이르
전환
소설
담당
올려
##레스
불안
올림
달창
독일
경기도
이명
바이러스
부대
온라인
비해
법원
202
심사
구매
울산
##이지
아프
내일
형태
가슴
198
본부
포기
미세
판사
버스
소개
나올
어린이
활성
강남
대형
주도
##다가
여전
떨어지
지하
촛불
절차
군대
단순
조용
강력
준다
제출
인도
으나
전라도
나타났
연결
정치인
보유
분양
지지율
최저
바꾸
현상
아래
변호사
임명
할머니
##으나
아도
공산당
경남
생기
내놓
중소기업
근로
##아먹
공식
총리
나경
구체
된다는
문학
거든요
프랑
네이
혜택
##인트
노무
라니
고통
통과
자고
동물
분기
참가
출시
##BS
마찬
상관
여당
매일
차별
항공
한국인
올림픽
보장
체제
내리
아시아
훨씬
철저
의회
마찬가지
홍보
군사
가리
남북
소재
유명
아닙
기부
자꾸
사전
전달
불러
선보
부문
남성
회복
중국인
근무
##반기
임대
무서
비율
기분
근거
수행
봐도
평생
부끄
빠져
##으면
나경원
법률
솔직
리그
실패
이기
##리스
사퇴
실제로
코스
의심
어제
경북
러시아
갈등
윤석
이미지
자세
봉사
시켰
간다
디자인
설립
반응
보상
불과
우수
인력
공감
대중
죽이
된다고
제조
신뢰
만약
주목
몰라
협상
약속
판결
수업
35
##he
증권
국방
아름
연합
조차
본격
당연히
거부
자치
가르
##워서
이재
집행
무대
스포
현지
드라마
라이
저녁
가만
금리
최종
직장
##으니
기초
여러분
일까
동네
공항
일으
공원
강제
##려서
미사
식품
자주
사법
동의
당선
으로부터
작년
던지
아닐
기념
자랑
의무
양심
잖아요
아빠
원칙
프랑스
의지
##란다
진출
화장
법인
토론
금액
자녀
제안
받아들
##요일
하락
선물
마이
이끌
네이버
해석
유통
없애
성적
##려야
나무
매국
망하
여전히
하나님
든지
##먼지
택시
포인트
부인
##학교
보건
눈물
스포츠
으려
수석
##아가
등장
위반
시도
오른
황교안
##차피
어차피
법무부
청소년
미세먼지
출연
던가
영어
스트
예방
협회
전했
방침
축제
고생
월급
바보
벌써
시위
레기
초등
체육
누군
안보
실적
아까
차리
추천
연구원
중단
노무현
세기
속도
부부
나타나
여름
##려라
원전
통한
알아
아내
재미
수상
지랄
우승
무역
심판
00
무기
특정
비난
ㅇㅇ
불쌍
선언
학습
90
역대
힘든
피부
헌법
반성
언니
예전
미사일
다행
이란
원장
과연
스러운
이곳
눈치
지사
진심
친일파
죽음
경쟁력
권리
나머
창업
수술
수처
일제
대변인
축구
웃기
자살
회담
변경
미치
방역
데이터
확정
부탁
진단
라서
##학생
선발
보통
장난
##라리
인증
학년
청구
마리
언급
##is
무식
올랐
건축
##간다
자국
어야지
미리
고등
법안
불리
취소
전형
거쳐
전남
불편
간첩
버렸
특징
만족
나머지
걸리
##은행
선진
시킬
우한
##이팅
다녀
사회주의
충분히
불구
직업
향후
##어진
소송
노동자
연속
과제
할지
바꿔
400
더러운
유리
호텔
로운
알려졌
신규
프리
설계
천만
인제
난다
생겼
박정
이명박
살펴
삼성전자
완전히
형성
을지
모아
흔들
타이
수용
운전
심리
나갈
도전
##ic
위안
아예
##BC
신용
당국
따로
일어
회원
##it
조합
생긴
하이
베트
특성
목숨
강원
기다리
##므로
##마디
효율
혹시
##해서
바리
혁명
소유
##정부
다며
연장
겨울
등급
굉장
쇼핑
유시
국토
키우
개소리
바란다
일상
서울대
##라지
차라리
이리
덧붙
도착
뿌리
합시다
싸움
청원
걸로
공유
수원
오빠
솔직히
무리
들어오
맛있
소식
성격
36
제정
통제
사형
할인
통계
주로
출발
조심
소통
했으며
##이션
골프
들여
점점
투입
폭력
유일
재단
연예
미군
주의
모자
전해
그저
시각
위하
바다
멍청
폐지
한마디
밝히
쳐먹
제목
맨날
집안
의도
카페
어쩔
초기
돌려
유시민
##텐츠
구분
##반도
51
남불
졸업
45
창출
나누
물질
언어
줄이
이걸
통화
청문
별로
학원
##운드
해양
하여
미안
불매
상식
베트남
어려움
인수
희생
상상
##무리
혹은
채용
##디오
바라보
달려
는데요
몰랐
상담
아름다
냄새
대답
##가락
매년
32
##랍니다
짜리
##바로
##om
느껴
스타일
문죄
마케
장소
물건
커피
뻔뻔
태도
인한
굉장히
손해
연락
지자
33
조선일보
지배
접근
측면
영역
서울시
매장
디지
맞춰
평소
마케팅
공산주의
열리
주가
집권
구역
외부
바탕
국당
아동
계기
중간
한반도
바랍니다
윤석열
검색
특수
했었
2015
고개
다이
깨끗
둘러
##at
유공
반일
합리
격리
장사
고소
촬영
다리
2012
케이
시점
주문
빠르
인터뷰
##스터
모여
부자
가득
느라
깨문
월드
197
비중
박사
나섰
최악
인근
무섭
비상
미술
2010
목사
의장
대사
물러
집값
앞두
분노
마무리
아닌데
전용
동원
콘텐츠
순위
표정
스마트폰
강한
지시
실천
대하
군요
작용
불가
정은
달성
요소
재난
완성
므로
##난다
종북
프로젝
기소
유공자
##서관
라인
##tion
태극
육성
의한
야구
##ing
수정
동일
짱깨
편의
2014
작성
저지
학부
지수
투기
점검
주사
야지
그나
아무것
최선
덧붙였
프로젝트
##el
애국
웃음
저거
극복
교체
원내
저렇게
허가
잠시
부장
##스코
부지
는다는
공약
정하
이론
결론
인재
화학
실수
청문회
위협
당한
인민
실험
범죄자
답답
##다니
마저
취급
단어
교과
가량
연계
지자체
주말
약간
600
방지
예비
창조
찬성
기여
박정희
고발
구요
끌어
요금
늘어나
명령
평등
사유
기독
바닥
배치
최순
저기
공천
장비
##다보
계산
전력
사정
태양
사업자
2018
조선족
체결
오랜
알리
농업
범위
나눠
보조
한번
38
무료
살리
프레
전반
화이팅
2016
개입
##우스
아닙니다
##페인
비행
싸우
실장
돌리
수십
전하
부처
반복
##re
스러
2017
늘어
전년
나선
처분
절반
##ol
2011
2013
철학
영원
##ou
##사자
시켜야
##아치
메이
주일
이럴
한계
##화문
투자자
정비
이성
##니스
분열
공단
이탈
KT
명예
리더
취지
반도
허용
수단
34
옛날
끝나
공기
토지
감옥
구입
논문
출마
동아
는다고
온갖
##거운
벗어나
균형
입주
증명
그니까
휴대
##시지
국립
비례
수수
충격
향상
긍정
##철수
가만히
대안
처먹
##어도
저러
놀라
기생
2009
클럽
통해서
지도자
군인
니깐
나간
부품
제재
기독교
대처
교육청
기계
덕분
2008
십시
마세요
대우
실현
실력
광화문
향해
이때
##벤트
당했
정체
해소
매국노
고위
사이트
컴퓨
##nd
고서
세우
과장
이벤트
##화점
애초
복합
연구소
요인
억울
검증
챙기
폐기
이달
폐렴
이어지
전세
고마
꾸준
펼쳐
운용
예수
##져야
넘어가
빠지
##산물
올라가
우파
기구
부여
지지자
디지털
도덕
공직
짓거리
감성
800
##프트
##바일
투쟁
바른
주차
모임
번호
모집
했다
안철수
##대표
수많
모바일
근로자
시원
이자
꼬라지
##말로
자율
징역
##으로
홍콩
연대
적당
차단
외치
##50
동생
그나마
계열
똑같이
조용히
양성
인하
미디어
두려
생태
##다면
회견
수립
52
##아지
적절
페미
보고서
대학교
완화
2020
공모
##리카
현금
임기
장면
태극기
식당
실질
자영
승인
입학
반도체
청산
기울
기도
모른다
##고기
정신병
버린
안타깝
컴퓨터
어울
그래야
2019
비싸
흐름
이놈
뒤집
조제
미쳤
##페이지
단위
연예인
실업
채권
홈페이지
주체
##규직
자빠
누군가
어떠
근본
들어갔
짜증
상징
일찍
이내
채널
그만큼
소방
##나무
가수
역량
비밀
서류
##le
아니면
명단
치매
방사
철도
##환경
위안부
배경
고맙
어른
한가
힘내
196
37
방해
자영업
##am
관광객
그린
고양
시선
대리
협약
강의
시리
거지
오픈
이른
##라스
가까이
동기
우주
정해
##이드
이중
대법
봅니다
교류
시급
문자
스트레스
네트
다운
국무
투명
700
인원
주둥
매력
움직이
담배
상처
형식
간단
유니
동맹
권한
##지어
상호
진다
그리스
표시
반발
챙겨
죄인
긴급
부리
다수
##은이
##머리
으려고
물가
타령
백화점
한나라
한나라당
강하
양아치
분리
했으나
굳이
발행
창원
유치원
수학
접수
식사
새벽
##ch
인가요
대박
품질
보낸
이웃
플레이
고향
지내
애플
스토
종목
특검
에이
응답
별도
전면
가까운
설정
성폭
보증
유가
보복
정의당
거주
왜냐
빠른
입니까
즐기
적자
장치
구하
레이
가해
예측
심지어
이념
오염
으시
##립니다
그치
독자
지상
충남
숫자
41
못해
휴가
내세
문통
제거
추구
보냈
더럽
##까요
압수
개판
KBS
대기
확실히
##메라
최소한
심의
of
소장
늘리
분명히
나와서
압박
부상
꼴통
긴장
메시지
철수
텔레
악마
후원
이슈
42
##as
배달
올렸
당해
민심
따뜻
통하
##하면
헛소리
민국
구청
전두
추정
요리
39
아웃
상당히
주위
중대
김영
확장
위선
학부모
엄청난
뭔지
주인공
자극
철저히
천안
등등
형사
선진국
아름다운
무너
떨어진
국장
증상
##구요
갖추
##워크
유학
##et
패션
유사
죽여
연출
경상
사실상
주거
발굴
중공
정기
결코
지원금
블랙
공인
아야지
어이
청장
남녀
걸쳐
시국
파괴
보안
연간
질환
포장
점심
도망
벌이
떠들
천지
배출
배상
코리아
세워
선고
IT
공동체
혼란
뛰어
##져서
48
고속
55
살펴보
##튜브
##아내
전두환
을까요
원내대표
생겨
부채
원자
개국
개정안
베이
줘라
불만
유튜브
전북
걸려
막말
한지
현대차
카메라
시켜라
조기
심하
당당
본질
2007
따지
키워
돼야
회계
##터리
도둑
경고
김대
전원
친환경
물량
지분
##어리
맞추
노예
완벽
사라지
수치
마트
경향
오지
답변
훌륭
협조
65
안내
새롭
##프라
나갔
감안
임시
인공
아울
가로
물리
그려
이승
더만
놀이
뉴욕
손실
참고
너무나
옹호
촉구
가스
##il
감시
물어
성인
데리
고기
고급
지나가
게다가
아무런
저자
터지
가을
지하철
43
전날
필수
몰려
출근
계층
칭찬
점수
흘러
공화
세트
정작
브라
대만
용기
신설
매각
결제
에다
종류
질병
##ed
##뜨리
프레임
연습
노선
이민
통상
최대한
만난
##지사
의문
네트워크
교활
좋아
면적
먼지
##회장
협박
자라
내렸
그곳
접촉
단속
소위
편성
관객
나아가
살아가
그날
편지
실망
폭행
업종
the
맞춤
때려
공포
시인
입법
박원
44
기생충
지경
출전
어리
자전
급여
웅웅
예약
##숭이
에겐
##공사
거듭
##마자
시진
져야
해명
테러
존경
##노총
악화
여유
유도
때리
저게
십시오
무죄
진료
슈퍼
못할
편하
의하
플랫
##바닥
들이
탄생
신기
상장
MBC
대학생
다섯
주년
수능
장학
날씨
부과
에휴
대북
겨우
연봉
화재
걸린
데려
합격
리얼
니다
전투
꾸준히
에스
해졌
이혼
되게
개편
지휘
벌금
사안
경계
비하
##영상
그네
라면서
폐쇄
잠깐
포항
허위
폭발
축소
완료
##총리
끝내
도서관
드러나
무서운
인성
극우
##스타
걸어
소중
부서
유기
떠올
자마자
46
다소
왜곡
수시
##아버지
꺼져
투어
상반기
다를
명확
나베
신분
개방
느그
이렇
##ation
인프라
부끄럽
시리즈
150
욕심
분류
신종
시진핑
원하
47
동료
직무
언제나
줄어들
우리나라
길래
표준
54
장악
자존
종이
99
49
올린
인류
축하
팀장
고등학교
저것
어깨
바이오
경주
원숭이
우린
나쁘
하반기
둘째
전개
용서
작전
##id
장점
멀리
적어도
월드컵
건너
양반
신속
사무실
이라
동영상
##리오
##NS
정원
차관
##30
근대
개성
성향
방어
취임
든다
광역
가난
진입
수백
빠진
주관
유형
타격
가게
저축
자전거
이외
관람
수수료
##와서
거대
떨어졌
지점
매수
기기
기에
감동
설득
##웨이
계시
##ent
아기
복잡
곳곳
매달
중도
이행
진영
개별
무상
아울러
순수
단기
경력
아이디어
이래서
AI
##줌마
재료
구라
질서
##준다
아우
한화
영웅
법정
75
움직임
매입
단식
단독
전공
연말
아줌마
출산
매매
김경
마약
광장
돌아오
면접
생존
첨단
자면
설비
건립
망해
석유
아쉬
미쳐
똑바로
봐요
참으로
소수
이틀
관점
말아먹
각자
진술
는군
메르
호남
산다
협의회
찾아가
부패
##카오
프리미
출입
취재
부회장
김치
아닌가요
민노총
구간
출범
##오르
모른
저질
##다수
기금
수당
파업
##친다
##리트
자국민
윤리
세종
옮겨
가동
매체
허리
62
지켜보
##긴다
추세
어휴
출판
상위
##아리
저리
이만
##로지
경비
여건
비즈
해체
김종
갖춘
눈길
후반
호주
맥주
이탈리아
보단
뇌물
상대방
발사
돌파
셔서
거라
국방부
복귀
머물
단다
소프트
##센트
선전
호소
크기
손가락
떨어져
KB
초반
동남
##us
교육부
멤버
학자
유출
58
살려
연수
식민
조중
망치
정신병자
전파
자빠졌
아저
김대중
배려
민생
대놓
근처
선박
꺼내
타임
대장
오리
구리
장군
소년
승부
제주도
이사장
900
아깝
노출
피하
임원
##드리
더라고
##피스
입시
정지
재벌
란다
추경
홍준
일본인
소녀
깊이
드러내
호구
저렇
취득
진중
음성
부당
단일
아저씨
협정
훼손
객관
직전
##니아
착각
만났
고교
신세
신체
전염
침해
박물
취하
가졌
홍준표
현행
동반
들어간
표창
더러
##직원
다루
들려
연주
마당
위주
강원도
쩝쩝
어쨌
##담회
캠프
존중
의료진
당사자
선배
동양
2006
실행
모를
무릎
고정
##ro
결합
in
상임
밝힌
재밌
감각
대다수
똑똑
모으
당초
발휘
삭제
나름
운명
건가요
캐릭
CE
언젠
받아들이
기득
민원
선호
문정
예고
영장
마침
에어
아닐까
된다면
오직
지능
비행기
보일
직후
에게서
으므로
##더니
아가리
큰일
퇴근
미만
##회사
커지
내내
SNS
젊은이
김성
계좌
보완
배제
의결
왜냐하면
위대
무지
이뤄지
영양
겁나
비싼
앞장
대가
측정
박수
##교육
버티
예배
간담회
애기
신호
군수
박물관
반박
조절
성능
냐는
대법원
감싸
캐릭터
비전
강사
##세대
조중동
따위
적당히
줄여
로써
며칠
체크
드루
줘서
##수색
의존
음주
조만
이겨
대폭
일반인
크리스
농협
시정
취약
죄다
56
벤처
59
사이비
카카오
화면
동참
압수수색
보관
공통
치열
펼치
##뮤니
지옥
바르
커뮤니
페이스
강간
지표
일으키
##야지
연관
정확히
백신
될까
##플레이
기아
잠재
파트
걸렸
자본주의
아닙니까
시내
스런
시티
파리
갈수록
문제점
윤미
늘어난
제약
고대
의학
올바
서구
사내
국산
유엔
규칙
백성
가요
변하
특허
퇴직
좌우
으러
원리
부진
인정받
새기
##티브
제정신
호흡
##ac
사망자
용역
운전자
##다른
오바
이따
미소
형제
그런가
노트
괴롭
은가
심장
어려워
주주
할아버지
습관
한두
활약
김일
조례
이재명
실무
가시
소문
열정
소화
2005
이딴
기원
주력
다름
침체
##메달
비즈니스
##생활
화려
53
판정
와중
개막
조만간
##리어
느낄
문가
대강
학과
그래요
농가
초대
진상
역겹
거론
가해자
조항
티비
붙이
정서
해진
194
오로지
##구석
영혼
이득
종자
부실
태어나
비서
사드
저항
지출
##저리
정경
단순히
포스코
지진
에라이
학기
두산
마디
##민주
점유
초청
타당
담보
부러
즉시
고령
운행
느낀
줄어
본사
여서
and
데뷔
편안
로봇
될지
아픈
저렴
대국
화장실
수소
##타기
즐길
자존심
가끔
남한
고인
66
시계
변명
만날
##잖아
화제
전제
후회
운운
패스
경선
교육감
이스
교과서
강요
징계
윤미향
##잡이
정수
연령
낭비
발달
기재
장학금
이분
추미
##주시
기름
벌레
노후
괜히
어이없
성폭행
청약
전교
차려라
##조리
죄송
활발
알아보
애비
57
집계
배운
진중권
당부
시청자
##어졌
대놓고
투수
이른바
혈세
한참
미개
##혜원
혐오
순환
용어
##힌다
##TA
마감
##항공
고문
드립니다
디스
피곤
퍼센트
일관
##조합
노릇
내린
파견
PC
일부러
어르
핑계
해봐
마땅
으라고
변동
일당
간부
안타까
적합
제국
달하
걸음
유승
도심
##다리
명분
영원히
네네
##란히
방사능
일어난
후손
유발
끊임
와이
##버스
흥미
존나
구단
돼서
84
첫째
64
특혜
오늘날
농단
플러스
안녕
끝난
신라
통보
아프리카
해방
아르
기지
신상
녀석
##권자
증시
그대
주행
느꼈
그분
편집
문서
농촌
상인
브리
보급
박지
##들이
마르
##핵화
간호
비핵화
버려
종료
추석
신한
억지
연극
면은
재무
공작
조언
##카드
##서트
초과
테이
한정
자네
배신
금방
들어서
뛰어난
현안
##운동
구상
비록
2002
지위
일방
페이지
해제
##든지
명품
대구시
함부
이정
프리미엄
심한
수급
물류
김일성
내게
입증
지향
뮤지
연설
문정부
2004
72
수영
지주
비대
위조
욕먹
홈런
선임
마라
해운
중학교
남기
유행
518
실내
##ec
점차
충성
차기
어르신
자제
충북
손혜원
물타기
##ur
##미터
85
밀어
농민
팔아먹
총회
박원순
독도
고시
클래
양산
##CT
문화재
뭔데
책임지
국정원
대상자
촉진
교환
쉬운
보존
합병
봐서
잇따
셔야
상생
합니까
누굴
재생
고집
자발
먹이
아닌지
현황
풍부
고유
마주
구청장
화장품
##의자
만만
치킨
노사
##어버
과목
성남
상업
추미애
흐르
탈출
만남
흘리
구제
으라
배당
절대로
확신
은퇴
용인
도민
실체
국적
주간
마냥
이낙
##래도
수비
메뉴
##연히
서초
신중
공직자
##un
급증
지나치
테크
몰아
지닌
토대
김태
##트리
재미있
재수
얼른
지인
못한다
들리
시범
비정
##란드
마누
수리
성명
고도
거두
체포
물러나
드러났
붙여
##는데
알바
준다고
사단
선도
부활
과도
부드
챔피
최우
당원
라운드
항목
없다
일어났
무한
입원
상공
더군
가방
는다면
대학원
이용자
지대
요건
##거지
채택
스님
메르스
##너스
여수
북괴
상가
넘치
환율
유입
분쟁
홍어
##ter
행태
조각
했으니
빼앗
안심
함부로
##ig
내보
포럼
대결
성분
도내
콘서트
격차
녹색
강연
태풍
지껄
주자
보인
양식
으신
휴대폰
공짜
##로운
km
##케이션
이루어지
구경
려나
황제
일종
##게요
배워
어쨌든
바쁘
CEO
절감
조달
키로
인용
63
타자
여지
불가피
가르치
채우
빨간
어울리
바람직
관측
과세
##저히
극단
그러므로
이낙연
돼요
들어왔
식민지
생물
한쪽
95
##os
짐승
일대
깜짝
태양광
융합
넘기
상관없
자아
보험료
도쿄
품목
거품
##리스트
사법부
일시
설마
벌어지
자문
2003
일보
극장
발전소
##소득
스토리
정착
들어갈
공제
대행
핸드
골라
환영
구현
되돌
데이
수집
감방
실시간
수천
파이
개설
사냥
갤럭
##저기
캠페인
180
방위
발급
백만
갤럭시
수주
조명
시사
착한
상실
지니
무려
내수
지리
충청
깨달
쓰러
미터
여기저기
파크
무장
##에도
61
국내외
상하
재개
##조선
수고
계열사
독서
선출
공익
보조금
스테
가계
정유
##단지
맘대로
##러리
소름
강행
##em
넘겨
충돌
구글
폭탄
아마도
##웨어
안다
식물
##임금
면허
비정규직
이라도
120
선거법
규명
우습
수구
앨범
나눔
경찰서
알려진
##가스
외면
불교
강경
꼬리
오해
동남아
수령
엔진
영입
득점
##ED
공주
김진
연방
각오
드디어
다는데
남겨
누나
##사고
아이폰
덩어리
오랫
컨설
일치
즉각
대립
만세
동부
수지
내려가
면제
우울
교실
몰라도
찬양
편리
복수
권고
지침
언젠가
침묵
으세요
모니
195
관찰
치우
The
정답
##워하
아쉽
##구리
어려울
창의
모이
부작
가려
그지
철회
화성
호기
김현
들어온
스페인
개학
사원
십니까
빌려
뜨거운
소환
양국
주기
자유민주
영향력
재인
즐거
바퀴
당할
실정
주소
발악
##리즘
라디오
그놈
공학
할려고
납부
독재자
올바른
기상
68
은지
아가
멈추
67
부위
어째
##비아
리라
진흥
게시
마누라
가상
여인
##나다
주차장
방탄
대충
는구
추적
선사
무게
입지
자유민주주의
중공업
써야
주최
##덩이
페이스북
##범죄
트리
단장
IM
일가
신화
나타내
추억
감당
편의점
한글
숨기
견제
조장
도발
선보이
지연
77
맞이
저장
세포
테마
만일
유아
연애
언론사
천천
견해
번역
교도
붕괴
끌려
버릴
##IA
평범
서명
위로
망신
천천히
삭감
명백
제조업
개소
정식
트렌
임신
진화
재건
착용
타인
충전
전라
임직원
항의
필리
##다란
##이너
부사
구멍
그간
하수
사업비
서양
전주
추종
주한
세부
##ad
회수
드릴
그럼에도
트위
인건
평양
여의
급격
배터리
해산
##쳐서
CJ
적응
확률
고구
어떨
지혜
재판부
초점
사로
일자
오프
온다
그릇
입찰
방치
어때
공시
동력
요새
뒤지
신발
걸레
무너지
치르
최저임금
채무
시끄
신앙
어지
##파이
거절
도지사
예의
다스
위탁
압력
##니어
강도
부추
컬러
건조
74
이해찬
물품
해고
외환
오랫동안
옮기
권위
지역구
수장
아아
자유당
김해
도구
색깔
흔히
총괄
##클로
믿음
계급
사물
구미
평창
##둥이
192
증액
잘라
에서부터
가공
워낙
입맛
환경부
중독
아이템
강점
심정
하우스
구먼
빠졌
전교조
결승
중동
감히
신도
청사
광주시
모색
앞세
71
##인드
FTA
유동
정규
노리
높여
학문
보전
발목
아하
진리
지겹
수호
꿈꾸
으론
든가
감수
##해야
자위
오만
고양이
하여튼
시켜서
확충
내려오
창피
후배
돌아다니
캐나다
스피
문장
겁니까
조상
1990
택배
라구
사령
찾아보
동해
써라
창작
전해졌
의뢰
통장
##관리
체력
박스
장식
귀족
경로
로마
순서
공중
피아
선두
어쩌면
하긴
##ve
획득
당일
조지
트위터
사로잡
탄압
경상도
꼼수
무사
출석
지명
가질
태국
한때
##운전
거치
열린다
아트
파티
참사
좋아하
관세
맞서
노총
부끄러운
쪽팔
틀린
행보
남부
구성원
아무래도
공고
모니터
##ot
지도부
GS
알려져
인건비
나설
엑스
감추
근육
##레이드
유족
복원
끊임없이
마이크
손님
##ut
성실
보편
급식
매도
여권
걸까
한숨
동성
살아남
가볍
소형
이슬
해봐라
리스트
차려
익숙
스위
위장
바위
양보
##우드
하도
귀여
##어져
철거
하여간
유권자
이순
봉쇄
엄격
기쁨
등신
##ul
한미
명절
김경수
한방
웃겨
모시
으려는
멋진
산하
오바마
스카
채워
82
조화
역겨
고작
갈라
##도로
소외
이주
인턴
소요
의해서
기후
충실
사모
누적
향한
중립
해질
뮤지컬
신선
왼쪽
진정한
불행
원자력
69
불렀
민정
스케
심해
유니클로
이스라
경찰청
풍경
중고
##소년
2001
진지
독특
신입
부작용
##ow
경기장
임상
점포
개그
##회의
챔피언
목포
##건설
통증
건전
##벌이
다면서
##빨리
망할
어린이집
73
구도
또라이
박람
유전자
경매
색히
사이버
쳐다보
침대
그쪽
연맹
약자
76
88
##시장
성추
죽창
대대
시체
북미
용품
사죄
곧바로
도저히
저번
디스플레이
통치
블록
심상
정규직
커다란
압도
세탁
조합원
생계
몰래
##산업
인데요
정성
죽인
행정부
예외
이어졌
연휴
골목
이스라엘
대거
텔레콤
떠오르
충족
패배
상환
실태
매출액
붙잡
SBS
설문
##총장
국세
깨닫
##매매
공평
예금
##ess
간접
쏟아
##CD
아나
미니
진작
가입자
금메달
고사
어두
성추행
소용
닥치
수록
배송
이마트
##아나
##르트
##ce
화폐
아픔
파탄
민중
합법
승진
가져가
가전
적발
##거래
상속
소음
##ag
써서
소상
그렇지만
월세
휴식
동질
성범죄
욕망
브라질
합동
##던데
아끼
상무
천국
담긴
공기업
바뀐
매주
파워
명칭
부산시
재능
보좌
각국
기다려
하위
고스
베네
세웠
페이
종시
산림
체육관
##ir
결의
배고
보낼
아녀
학회
씨부
누르
천억
추락
세운
연료
##od
국어
논쟁
참가자
부도
외교부
컨설팅
##구니
끌어내
카톡
멀쩡
쟁이
와인
공헌
인문
시나
약국
날아
가벼
시비
공화국
병사
남용
이재용
생길
부끄러
시달
이만희
후진
추방
베스트
사리
모조리
김재
고쳐
의자
부럽
전후
어리석
나아
소지
시골
종일
허락
가라
박영
연평
예능
인격
십니다
밀려
마인드
증언
##지르
코드
황금
소신
화물
바지
가맹
들어와
앞장서
두드
98
안팎
특화
야권
부적
##쟁이
생일
78
널리
파트너
는디
문명
1980
돌아온
어머
토론회
중구
기운
뚜렷
클라
틀림
전담
한겨
적정
##그러
전지
테스트
##바지
죽일
ww
으셨
구별
##시마
끔찍
스타트
리더십
다가오
##ay
살해
##어질
흡수
보육
어우
전수
업자
##um
데모
##어먹
몇몇
저소득
생각나
결심
퇴출
##스티
변수
태어난
면세
상자
원가
배웠
농산물
그쳤
해상
##석희
케어
던져
추모
그리스도
트랙
가깝
계신
대량
측근
날리
##든가
오피스
방학
도약
무력
응급
치러
지네
개헌
당분
대주
IMF
당황
눈앞
전역
영남
낮추
열렸
형편
##ers
나빠
시세
서해
기대감
마사
유산
마침내
학력
일원
온도
해군
욕구
맡기
침략
유승민
94
코미
귀찮
##로스
모범
전염병
초딩
한도
박람회
런던
##어났
시킨다
일지
청정
기술력
유력
쯧쯧
##im
임대료
착수
살짝
코치
관료
초래
독점
정말로
재원
St
나불
##단체
김제
오른쪽
기차
흔적
졸라
##바이
모았
신부
이길
사립
무관
진주
춘천
최적
대접
구원
책임자
면역
때로
국무총리
폭동
나타난
강아지
##학자
소주
쓴다
##루션
김학
더블
미아
변신
##op
포스트
성매매
저건
만화
인연
받아들여
제고
한전
어떡
금강
곤란
방금
격려
과일
##어넣
기아차
패거리
문의
관여
세무
폐기물
영광
미술관
##대가리
학대
In
증인
열받
##디션
193
민감
평택
피의자
부딪
인종
게이트
타워
홀로
그라
트렌드
##PG
1500
##문화
후쿠
손잡
중계
비디오
개통
다닐
독립운동
스크
부천
어릴
##걸이
다녔
오키
요양
모순
다물
전광
이태
갑니다
음료
관행
천연
필리핀
고전
##oc
191
유해
멋지
김상
고백
처지
제자
신세계
##지능
과감
대해선
현명
인공지능
##풀이
기각
위상
전시회
마친
패턴
진로
섬유
저지르
환상
그야
공략
원정
학술
##관위
매번
요원
천재
이어질
양상
파일
장수
부각
코미디
우유
한강
이종
종로
여섯
정세
대목
가속
비서관
화이트
모자라
##그룹
고리
둘러싼
사라졌
발광
따라가
차장
용지
건수
무용
헤헤
코스피
여겨
버려야
브리핑
중점
산책
동작
81
마구
운송
막대
##IS
에다가
주둥이
심화
문구
조롱
당분간
##bs
무렵
국익
탄소
나대
선포
풀이
위축
오랜만
외모
걸릴
싸이
원천
일각
노하
명시
시나리오
저지른
준다는
절실
86
전당
##CC
산업단지
마켓
내면
박살
철강
##랑이
중반
재배
##아이
태평
개봉
잡혀
육아
준공
토요일
##낸다
부가
사무소
##og
##려면
모인
더라고요
지소
케이블
터진
대외
갖춰
##ity
역전
처장
찌질
농사
드렸
납품
##증권
주석
이야말로
소프트웨어
##ew
천하
사업장
임무
##본다
꼰대
숙박
석탄
청주
김동
동구
##마스
고마워
출장
가즈
줄어든
##치기
1997
한층
우기
지불
귀국
250
반미
진학
수렴
경영자
농구
수습
상사
자세히
유로
소원
79
게이
무언
식구
물려
##로그
##거렸
법조
간신
오케
고치
내역
공지
자신감
가르쳐
올릴
감축
합류
흔들리
비자
범인
입사
실종
이순신
바쁜
으리
세뇌
1998
군데
앞둔
서서
자르
는구만
쓸데
메이저
EU
##지부
져라
중재
이수
높였
##산시
전기차
블루
현직
대금
일어날
인디
가이드
정국
순천
사라져
시상
기조
위성
볼까
억제
지껄이
상당수
종전
기법
고장
87
##업자
##ap
솔루션
조아
구석
엘리
##스토
돌아왔
##그릇
터져
유가족
##벌레
떳떳
97
스러워
장례
미칠
새해
유죄
##현진
인천시
장르
마크
회관
신념
여의도
이슬람
92
할래
가사
특권
개척
##번에
증진
##느님
재고
묘사
신인
동북
담당자
위생
엉망
유대
셋째
작동
단단
com
돌아보
이승만
그만두
교통사고
쓰이
사면
서부
누워
MB
답니다
주먹
먹여
간호사
매니
실리
드라이
무덤
늘려
양쪽
강릉
메모
따져
주머니
아이고
PD
입구
바꿀
숨겨
##ri
떨어질
감기
하느님
담겨
왕따
표창장
랜드
96
살림
끌어올
꺼져라
스키
극대
고수
몰리
앞뒤
정황
열차
넘쳐
불량
대통령령
내지
아부
니까요
탄력
마이너스
##봐야
한남
돌입
다닌
전액
내주
사찰
경호
속이
정밀
상승세
아시
수면
고지
병역
업적
구호
로스
교장
원주
박탈
시중
재정부
증권사
모은
빠져나
모지
건의
교도소
작정
김기
무선
법대
영감
용도
이닝
일세
김포
여사
해수
##어트
##퍼스
중개
의약
세끼
영화제
대지
83
엄청나
사자
증대
기적
줄줄
도박
산불
상금
손석희
특별법
위법
##포르
막히
지령
그야말로
냉장
잣대
드림
IP
##경북
음주운전
91
지부
분산
이쁘
하하
선관위
공영
해진다
감염자
이룬
도청
금속
교통부
02
바치
손상
싸워
기어
치유
지났
핸드폰
최상
팔리
순이
접속
재건축
한겨레
너거
무척
노하우
조리
발상
남쪽
89
##하나
참조
오류
학살
모욕
##여행
보여준다
내밀
계절
워크
범행
다구
쇼핑몰
북부
글쎄
떠났
더냐
여보
유연
계단
감염증
신임
##소년단
상품권
청탁
섭취
흥분
음모
용산
Ch
정직
부총리
괴물
저딴
대륙
부들
스티
식이
##st
부사장
자진
만기
방탄소년단
침몰
가중
직장인
190
학위
소독
##토록
아카
벌였
눈빛
조카
푸른
관념
빌딩
는겨
차질
면상
복구
엔터
탑재
무효
발의
##가포르
##어준
치료제
싱가포르
##리티
음식점
협업
일요일
암튼
주재
거점
버려라
달라지
공소
고의
리스크
선제
잔인
오를
KIA
FC
김어준
포털
점령
피고
주류
여태
협동
타이틀
망했
원활
##프레
메인
놀랍
부양
밴드
시공
세일
염병
책상
오토
증세
농장
이대로
상정
성립
을려고
호응
국비
특이
웃긴
##크스
거울
글자
허구
신사
서서히
더구나
전직
항만
즐겁
##레인
마음대로
##브리
전무
##지않
내정
밥그릇
신나
사후
윤석렬
탈락
행진
무서워
선보였
대개
특별히
레드
단체장
깔끔
##무성
배정
세미
로드
비극
##그리
베이징
갈아
##직자
저놈
제보
대구경북
식량
간절
아름답
입술
겨냥
장자
현역
약한
비유
늘어났
야간
판매량
아니하
두려움
플랜
명성
터미
됐으며
삭발
단축
##같이
최강
케이스
간섭
감상
패스트
관할
번지
마쳤
원조
법칙
라이프
헬스
비타
감면
쟁점
최신
kr
##나이
##구역
북쪽
특유
비로
서식
신학
나선다
부하
화합
명회
친절
꼼꼼
창문
여파
오가
사연
와라
상한
연합회
사격
어딘
하여금
예쁘
초등학생
늘어날
반려
조세
군부
나옴
길거리
고르
일기
콜라
##키지
악질
오죽
아메
통수
흑인
##둘러
출동
리얼미터
동화
합쳐
결단
김용
슬프
분당
주부
노란
복무
머릿
깡패
xx
국고
봅시다
도달
성경
아이돌
안양
모래
석방
한창
짐작
##주의자
소득세
히히
과잉
타이어
승객
으려면
to
내려와
패키지
지검
중앙일보
필자
맥락
기울이
향하
자부
##원회
미국인
놓치
신장
흑자
들으면
수신
국면
축산
시집
올라오
유전
##처럼
보소
내려놓
감자
어마
어떨까
슬픔
내릴
더듬
사무총장
분담
교인
이뤄졌
떠난
클래식
진동
죽였
어둠
일으킨
##이즈
감찰
종종
잇따라
리조
육체
더라구요
표명
지성
엉뚱
캠퍼스
대국민
교주
##받침
명복
스펙
양도
구해
혈액
김제동
봐야지
줘도
##온다
##구멍
날짜
골프장
##DP
명의
미루
대갈
중견
완공
잔치
##싱턴
좌익
마법
정통
간사
출생
해안
망가
모금
였으며
##성장
인과
다이어트
형상
##무기
터미널
무인
지난번
드러냈
난민
동성애
예산안
사인
유용
끼치
영토
국경
##마니
꺼리
씨부리
##스티벌
페스티벌
시신
소멸
정한
교섭
거래소
93
온통
횡령
피로
이영
##통일
원고
종사자
퍼지
전사
동서
반납
안중
커뮤니티
내달
막상
##보이
##NA
관절
유포
여경
패널
당첨
티켓
정면
발주
금호
달한다
##피아
포르
선교
오프라인
앙이
##느리
##th
바꾼
##릅니다
참모
고려대
사우
테이블
##어내
성취
소나
코너
커뮤니케이션
전적
달했
최후
대체로
##합니다
은데요
자격증
줄기
소련
간다고
수험
망한
법령
되찾
출자
타운
져서
간판
귀신
바깥
수산
놀랐
연동
생생
특위
##산부
이인
연상
푸드
이끄
회피
마니
##제품
거친
정시
즐거움
동향
리조트
도리
일산
뒤늦
비타민
차세대
내보내
##TE
유감
##대문
##비전
야외
박지원
도서
크루
##컨대
더군요
스타트업
원유
뒷받침
낸다
자회사
##and
국수
급속
본래
스튜
등기
잡지
급하
선별
##테크
##디아
##러지
욕하
병행
증여
민폐
경유
조종
시행령
당내
대원
지켜야
생리
원수
##이크
애정
신재
즐겨
놔두
일환
##네시아
환장
##거나
이언
약점
바둑
내세우
소금
길이
##시코
헌신
보임
창고
##bc
동포
황당
줄게
##용차
까닭
##시고
끄덕
마산
분할
뛰어나
할까요
인형
건설사
원료
허허
화웨이
무산
엘지
워싱턴
애니
선거구
탁월
##버리
니들
김연
방송사
밀리
가맹점
어딜
피우
##스턴
##꺼번에
한꺼번에
결혼식
전락
노벨
뱅크
아리
느니
코트
조폭
##바람
응시
절망
고추
에어컨
후속
영구
##두르
족속
선보인다
##로드
##어야
비로소
착공
몽골
까진
처방
안건
집착
한진
선행
도중
이른다
어여
실용
몰라서
등교
저래
교원
연인
프린
잡히
저작
동지
전선
동아리
억압
면세점
줘야지
매치
표면
##어진다
플라
금감
##ame
된장
1995
인도네시아
중시
##르크
보여준
힘드
##스탄
고구려
이력
건국
1970
종식
계란
인척
급등
특례
vs
남양
귀엽
두루
대항
세이
충이
tv
이완
계정
마비
전설
양자
재발
쌍용
이치
화력
불안감
쿠폰
기온
스쿨
유독
수시로
대권
지르
소감
유세
남아
성숙
GM
자사
멋있
적립
날려
활력
앞잡이
실효
마는
중지
고는
일곱
제로
등록금
헬기
단원
##집니다
항공기
일선
축적
##스레
재해
편입
노동부
최우선
김지
약하
했잖아
수법
##동강
로비
성폭력
전술
##트롤
자질
##RL
개시
배후
든든
위임
직권
전광훈
호수
저걸
벌어진
외출
어용
도시락
엄중
LH
드린다
의류
아무튼
나란히
##엘라
항공사
크림
앞선
임종
중복
손바닥
임차
상주
마셔
의약품
냉장고
당은
작곡
마녀
국군
신비
자칫
징용
찾아내
한자
척하
신성
억지로
##NG
머릿속
우와
스웨
거세
지법
표기
비평
ㅇㅋ
기한
실명
법치
풀리
##끼리
취향
집합
경찰관
추측
공세
##관계
기부금
후기
수색
지킬
출국
과태
여객
무언가
작자
갈까
정무
##가루
공정위
코스닥
##40
프라이
자화
냐면
희생자
저소득층
앜ㅋㅋ
패러
성질
빠리
한결
불황
과태료
포괄
핑크
가져다
우위
장려
피자
드립
클린
상권
안경
총재
##권력
서기
이여
어벙
틀리
중기
안동
##가운
텔레비전
세입
세미나
포트
바닷
김정일
운항
감지
멕시코
이단
스위스
도모
관심없
맡겨
##교통
오피스텔
시가
정수기
할꺼
소유자
내놨
폐업
간주
최다
추악
유효
대단히
안타까운
지난주
##혀서
광명
남겼
눌러
농담
벌어졌
주저
마스터
라니까
저능
소릴
형평
##시스
세제
예쁜
두기
의대
##OC
납득
폭락
육군
웨이
청렴
스탠
광복
백수
왠지
개뿔
다행히
아시안
130
사악
관장
뛰어넘
##수엘라
관하
뛰어들
산정
IS
배울
편한
01
수위
공안
고무
미성
내외
하나하나
송도
다니엘
베네수엘라
##ab
고스란히
NC
명목
불신
기다렸
도우
합성
해결책
후쿠시마
갤러리
갔다
접종
강세
##데이
1996
연도
몰아내
분배
둘러싸
구름
전방
##스키
날뛰
염려
공업
신축
더욱이
명문
스페
대한항공
혈압
금요일
03
모였
포도
노동조합
이뤄진
한류
지식인
스승
모여서
연세대
징징
탐구
놓여
줄일
##세포
주무
##렴치
발효
URL
플래
역적
부디
성별
드린
회전
중순
백제
파렴치
떠드
징수
##더라
잔뜩
저하
지낸
잠수
살피
##닉스
이언주
하얀
가벼운
응응
조센
여긴
은근
온몸
달린
청춘
트럭
가관
##지오
관람객
거꾸
NH
편향
지냈
빛나
초월
합작
태평양
건축물
머저리
색기
노동당
멀티
보좌관
재활
검진
근원
동조
하드
모터
치밀
금감원
누군지
키트
발라
생애
반환
쳐라
즐거운
맞대
등산
돌렸
준용
약물
첫날
심상정
네티
녹음
화나
예선
선조
오페
심심
05
스크린
새겨
흥원
위선자
핵무기
관광지
수명
기세
설사
커플
히트
기업인
얼음
놀라운
진압
가하
펼쳤
냉정
사명
kg
기쁘
파산
오마
토록
상용
정화
파란
영리
호기심
주고
교정
먹거리
라이브
안달
OE
주범
네티즌
흥행
110
배부
털어
체감
새삼
김무성
느낀다
성형
나타난다
반전
부스
##베이
임영
망언
한단
장제
장착
뮤직
부를
국세청
조약
해외여행
##부인
열기
달래
명심
순이익
이윤
소셜
##어날
문건
벨트
말투
개장
로맨
장성
잃어버
##무지
류현진
씌우
통일부
##ra
##식간
총수
##데미
게시판
##운서
넘어서
어딨
배급
업소
오세
아나운서
였을
확립
무더
가져오
터키
속하
서버
중산
실업자
타협
좌표
들여다보
감사원
제사
지목
낙동강
어려웠
돌아간다
아카데미
주권
내비
##스럽
소매
주유
한국어
농림
일일
들어올
일체
왜놈
놀리
시끄럽
후진국
거꾸로
별다른
2030
슬슬
목격
우대
생산량
편법
김수
마자
저주
컨트롤
사지
대세
쪽발
디자이너
유혹
공산주의자
창립
숙소
기호
새끼야
배우자
##하여
드론
##ore
고등학생
삼가
사생활
집구석
1994
전신
망한다
시술
괴롭히
통신사
상영
오버
당선인
119
상향
힘입
화해
LED
이를
##북자
ㅇㅈ
수년
들어선
서술
##ip
유투
이지
두려워
견디
메일
애매
간편
다시피
개무
수성
공방
나간다
정유라
##파크
줄줄이
##뜨렸
국채
보증금
폭로
관중
순식간
단호
소스
##행위
이래도
기성
한동안
단절
산단
##투리
빨라
치워
재수없
해져
매니저
해임
실점
몰락
날개
분단
유망
오페라
주방
다짐
유인
퇴진
손자
연패
차명
단점
##iv
사료
공조
궁극
체인
##CTV
사각
보훈
두렵
GDP
화상
아쉬움
피할
언론인
비치
백악
포착
거뒀
상세
##ion
외신
잠실
남긴
피고인
코스프레
보건소
잘난
지우
수작
항소
여신
당뇨
##보드
왕자
##텐데
CCTV
시트
은폐
말리
조현
탑승
이쪽
고성
IC
꼽힌다
##런스
쳐서
개미
아산
어선
##놀이
대주주
##80
##ct
끌어들
시너지
배포
북구
임용
IB
##일리
슬로
치명
본능
면담
과학자
일으켜
조문
전복
사라진
출간
대중교통
염두
수강
농어
다지
취미
서둘러
월요일
아름다움
속보
요약
다름없
원망
김민
유착
헤어
참나
상관없이
커녕
바꿨
대왕
드러난
가라앉
의정부
리모
양념
크리스마스
미용
##고생
조속
작작
떠오
애쓴
##통수
경관
광우
채소
꺼지
흡연
전도
박영선
플라스
누릴
위해선
찍소리
모니터링
솔로
뻔하
세수
##머스
구두
앞세워
##ia
버릇
그림자
이루어진
힐링
제압
확고
버린다
옵션
총력
매월
우스
모지리
제어
조민
재현
고고
려다
대사관
비트
술집
여주
쓸데없
미달
독감
조그
토크
구린
보석
비웃
터졌
##동원
일수록
지각
##ist
책정
창원시
클라스
##걸음
배분
틀림없
동계
애국자
과시
실상
나타냈
검정
안방
이병
이제야
꼽히
높일
보강
부재
상임위
입력
포스
클라우드
2021
신혼
##입니다
부추기
물고기
단가
밝혀졌
##테리어
무서워서
파헤
재학
주고받
##버그
##타인
떠올랐
수분
##옵니다
프라
갑작
와야
만주
싱글
트레이
##덜란드
할수록
네덜란드
엉덩이
영세
##여서
하천
장인
신탁
빈곤
고조
단백
설레
##tic
돌아갈
다룬
역겨운
백악관
전철
방송국
좌절
낙태
민경
##ard
날카
골드
아스
접대
목욕
##빠진
은혜
모독
한다며
전이
커졌
이산
라기
돌보
산소
임진
시달리
강남구
효력
적화
망국
해법
바뀔
밝혀라
추잡
파도
조회
##영화
백인
터널
아이디
교부
체질
년놈
키운
##새끼
하루빨리
인체
미성년
온전
JT
멘토
과실
만지
태어났
##싸움
보건복
##밀히
군민
벤츠
탈북자
처형
직면
가까워
cm
외식
의외
##ns
스웨덴
공매
주둥아리
우익
탈당
##DI
##니즘
걸려서
그램
논술
교황
탄탄
예술가
발간
광신
지극
추하
소모
예컨대
뒤통수
##겠다
생선
학업
고래
등판
도요
들어와서
프랜
##고리
재직
폴리
언더
병력
맞춘
인테리어
name
일행
김병
FA
찾아볼
야기
박차
##어마
기만
통행
##보기
접목
##성이
Re
과자
##렉스
느냐는
스프
센서
##공정
야생
장모
남구
##OU
용량
그런지
빼돌
댄스
약화
살아온
살인마
플라스틱
김원
역설
세균
들어간다
운동장
고가
동북아
가산
일일이
그딴
일삼
전월
호의
조원
강해
189
##니스트
공무
인치
선보인
수질
발병
소극
제휴
동행
증정
##장난
바로잡
보태
##시간
어쩌다
이라크
강좌
의상
별개
밀접
실습
향기
양극
이적
아오
반기
매진
멍멍
장제원
비추
동정
비결
연이
##가르
제작진
지긋
변호인
장병
실은
이어진
유흥
외국어
우연
블로그
횟수
골든
소서
##ell
찾아오
메이크
정교
안성
##동생
공문
##톨릭
세습
애쓰
해설
내각
쏟아지
양육
허브
여대
달랐
왕조
게재
자립
유료
경제학
감염병
벌인
조율
기숙
정준
생활비
어마어마
##HO
승용차
pp
몰아가
트로
던졌
입금
##자찬
##메이션
##검찰
건드리
혈관
개개
멸망
어처
튼튼
단정
웃긴다
게끔
빌리
수혜
튀어나
자화자찬
집사
당과
소홀
미투
장자연
김광
인접
##걸리
보건복지부
양파
합당
보행
함유
##희정
재선
OECD
진전
부풀
신청서
##est
내년도
공통점
랭킹
급격히
라곤
준수
st
140
요금제
##부들
안산
우물
처단
##ver
결산
착취
스튜디오
선장
피아노
으리라
소집
증명서
차릴
프로세
##추어
비닐
송파
교차
금강산
말라
노트북
양측
취직
민낯
연다
부들부들
토끼
편견
연일
기뻐
기피
동결
천사
동문
반사
성사
##지니어
##일으
미흡
영주
단백질
플로
##까봐
할배
부합
다니까
불러일으
등지
주둔
1960
무거운
대치
걸러
스카이
연승
보충
십시요
다큐
간다는
파주
유재
열악
는군요
왕국
기증
공군
호랑이
울리
통지
비열
160
랄까
좌석
세련
전범
재판소
떨어진다
관리자
##our
되풀이
거시
SU
이노
쪼개
애쓴다
헤드
BM
납니다
##차례
액션
한우
경영진
시립
경위
##널드
사표
적대
대조
##마크
연루
링크
차트
아랫
반역
##릭스
원격
##사업
우상
뷰티
개관
권유
버림
바꿔야
자매
##바다
시상식
어쩜
치사
강렬
슬픈
이준
동상
친척
입점
원안
짜장
쓸모
아마추어
우방
이뤄질
지상파
려니
박멸
평론
ㅇㅅ
모기
부른
우편
천문
##셉트
모름
수여
집어넣
이마
막걸리
액수
여가
##ob
밀집
교훈
질질
##발전
사이즈
종업
정해진
상해
강대
##ill
약해
##60
생긴다
모의
범법
파고
##art
반란
국격
어두운
##르르
##먼스
##ie
고립
학년도
열등
사도
드물
놀아나
성희
표지
##ang
변함
##니깐
or
지킨
고만
과천
광양
휘둘
기밀
쉴드
본회의
뻔한
내다
부드럽
인자
단행
사흘
이랬
##밀리
환수
일까요
임영웅
도출
유정
출판사
표본
관해
타입
ICT
편히
##두리
어처구니
유예
정년
추출
인명
벌리
SM
##드로
JTBC
낚시
둘러보
과반
신동
우정
김종인
날라
머무
편들
후퇴
질의
태우
종업원
##센터
일괄
탈탈
공권력
##유산
예언
지붕
협동조합
법관
##급식
저널
서면
차익
떠올리
##들여
멈춰
그리하여
무상급식
저능아
##징금
열려
원한다
부른다
텍스트
##포먼스
##아웃
퍼포먼스
소각
오락
의석
어쩐
사방
##퇴근
모아서
지장
수확
2022
##의식
크루즈
버전
용돈
박주
육상
유적
벤치
소망
서초동
##조사
까먹
접하
당기
정정
치솟
계약서
하필
##연합
그걸로
어긋
##살이
##임자
이정부
신문사
동선
1992
관내
군산
인쇄
치즈
계곡
나눈
선비
도망가
절약
똥개
이견
쪽팔리
기르
단말
공범
변형
종사
동아일보
추첨
##ak
##스트라
##러진
나노
대수
서방
이데
서장
미지
당선자
사시
##그레이드
사교육
업그레이드
며느리
자칭
지갑
막판
##TS
역학
재계
##유예
본선
마늘
만성
우회
실감
##붙이
포토
응답자
이집
필터
김진태
반짝
손흥
이집트
베르
이사회
공백
다네
들어야
걸림
나와야
거둔
끝날
레저
원금
##볶이
발레
정산
지체
부드러운
손흥민
아홉
경과
가치관
구걸
##뜨린
돌이
한양
강국
돌봄
##내리
급한
##평가
참전
우연히
##유럽
안락
보험금
매립
생성
관련자
일으켰
친화
유물
th
엘리트
메이크업
##레이션
실세
##ine
수다
회식
변했
돌대가리
오일
AP
잡아
주름
메달
1993
해경
뿌려
결성
권역
DNA
나마
부류
가축
방위비
토막
평일
##FA
클래스
##사리
와우
##하루
##TO
추산
증오
우울증
매물
자부심
머니
취해
중부
농도
민경욱
돌아와
##토리
경인
장교
됩니까
다채
마라톤
시발
레오
불공정
꾸며
대여
##ate
하향
발매
사령관
##이다
넥센
명확히
1200
헌재
##지대
##ff
신약
달렸
성희롱
대입
##시설
애인
교대
써도
보상금
득표
미수
주역
낙찰
바퀴벌레
리스
##쳐야
글씨
숙제
여왕
느냐고
개표
백두
겸손
달라진
취한
수련
데이트
방한
우즈
우호
인듯
무고
미뤄
치과
라이트
낯선
성서
법제
호르
는대
망쳐
속성
계승
으이
더라면
악용
나타날
광범
##PGA
미스
이원
품격
수차례
하청
건네
쇄신
본성
구당
차분
우롱
출퇴근
감액
승점
공신
##드라
맛집
지지층
부착
몹시
후원금
그토록
수상자
천주
이메
해야죠
두둔
주의자
타임스
허물
신자
잠들
순진
망상
교양
떡볶이
아티
불통
걸친
관해서
Pr
치안
내신
언덕
무단
저감
금품
수원시
프랜차
도장
국민은행
갖췄
##오프
음반
라네
사소
입대
삼국
스코
##70
유의
그러게
공존
국외
내놔
거르
침입
성당
납치
똘마니
##다지
##연대
정치판
해운대
한국은행
달콤
프랜차이즈
착하
타이밍
나물
뜨겁
북조선
##카락
마진
머리카락
##브리드
차선
언행
하이브리드
뭉가
더더
##버려
외쳤
봉사자
극치
이메일
보살
목록
유관
지나친
법인세
드려
숟가락
강구
보류
모드
체류
일간
해줘
색상
들먹
터치
해킹
아가씨
##십니까
##트로
성찰
특구
러브
##셔널
##고속
중년
청취
듭니다
교역
우아
돌아다
유교
퇴임
진도
홍수
줄서
2500
드래
수산물
지워
못지않
낙하
열풍
전산
둔화
엇갈
선수단
원대
아니야
드럽
별거
여도
쿠팡
거실
당근
돌아갔
보이콧
키스
접어들
소대
하이닉스
대법관
생색
공수
출구
여덟
브로
온실
##all
바빠
엄벌
고민정
회동
발령
탈퇴
섹스
휴직
였으나
##올로
왜냐면
발길
##소연
어린아이
부수
잠정
광신도
낮춰
우산
양해
마포
밀양
편가르
구독
US
오호
횡단
광부
단서
상의
장례식
쾌적
할려
ㅠㅜ
아사
극심
중증
불거
획기
불꽃
멍청이
막내
반찬
##방식
왔다
엔지니어
##센티브
인센티브
각지
뉴딜
##태우
이해관계
발명
##기야
고속도
커질
체중
원화
네여
동아시아
자니
댕이
합치
김문
화살
해선
아랍
수송
##매김
미스터
사학
##수기
열매
받아들일
가문
친문
자리매김
나뉘
이석
##위원회
DM
악수
다치
필름
##테이너
줄까
##TX
호도
이따위
나랏
MC
쿠데
자수
톡톡
휴양
내장
시야
부친
이쁜
가죽
##블릿
추상
소관
경사
체하
학점
야말로
까다
추격
어짜
잡아먹
통로
지켰
통영
풍성
가파
동급
모른다는
글고
관심사
사고방식
##을까
다녀오
딱딱
이례
넘어섰
내뱉
임의
간격
내란
봉투
헌금
##눈물
싫어
라고요
##들아
해골
형량
사설
모양새
이대
이니
for
두꺼
비틀
도둑놈
지역민
자란
동쪽
##지긋
TF
내걸
어업
건드
어쩌구
르노
달려가
아무렇
쳐넣
변해
##따위
내려야
부근
흐리
유신
호감
우체
문득
열릴
빠져나가
장기간
일제히
커서
##본부
뭘까
태워
참석자
해지
소명
파격
예민
김영삼
다던데
지긋지긋
사세요
타점
보입니다
을수록
##개발
거북
공지영
쌓여
휴게
1991
말장난
장벽
의제
##라면
만족도
행하
방통
신생
찌르
다가가
애니메이션
개개인
어느새
##그래
흘려
쿠데타
추위
명소
주어진
##질러
놀이터
줄어드
충당
스러웠
활기
스토어
##출산
co
태블릿
마셨
장미
상시
SUV
전송
이뤄지지
우덜
저쪽
##사람
시어
사대
탱크
지금껏
균형발전
산학
안겨
접근성
어치
지저
구할
##ure
말기
중학생
규범
기장
선명
공감대
피눈물
대인
LA
바래
엌ㅋㅋ
려구
##올로기
박찬
이데올로기
기하
강성
분과
어색
퍼져
겠다
물음
101
이불
조센징
응용
급락
쳐도
##IP
한잔
복용
손목
##적으로
굴러
##까리
KTX
깨진
모형
LTE
보람
관제
달아
새우
주유소
달인
ㅇㅅㅇ
##티나
거제
##대기
공론
##어요
개웃
실전
귀한
사위
##워드
자민
무겁
송금
무소
문제지
후예
주연
니놈
못난
거슬
키울
견인
자비
애미
웬만
적시
외곽
소린
광범위
UN
나치
신다
##영향
초록
ET
파장
시설물
총액
벌여
기둥
토로
으라는
##배우
걸어가
질투
무주
검거
치아
권익
콘셉트
공표
##ok
우월
고난
비겁
오세훈
##규모
서점
장담
농어촌
때려잡
지극히
인내
회의실
제명
출현
관상
##리케이션
끊이
##원장
공청
신년
훈장
고로
에코
앞당
부역
서쪽
계엄
싸이코
비참
##금리
사재
욕설
스파이
국악
리서
개구리
동사
벗겨
성금
애써
의정
정계
이룰
임종석
불쾌
##그라
끈다
투성이
공연장
##기사
명박
숙이
들렸
넉넉
개신
공자
##ment
학계
일본군
하루하루
파기
환원
교민
컨테이너
폐간
아버
분량
특기
산출
##타운
알렸
나팔
편파
기상청
강점기
BMW
기숙사
광역시
##저스
휩쓸
1987
가증
친한
개수
버튼
##IC
커버
괴로
맙시다
터질
##ud
사귀
사라질
강력히
대략
통계청
빼먹
안희정
가져야
부유
블랙리스트
키워드
극히
북측
가톨릭
대마
카운
올라갔
부산대
정의연
간식
포상
혼합
1988
WHO
개독
환불
비비
싸울
활짝
어렸
개조
##ts
샤워
##리포
실물
마르크스
##ub
##ork
안주
유성
잡힌
수목
규탄
버텨
공판
어음
##멘트
김장
천장
##신문
불참
침투
이목
김정숙
어기
드나
훗날
라든지
##ue
트라
자재
파라
##북도
처한
국감
살릴
반해
바짝
체납
미처
교묘
사직
소규모
십자
특강
부시
건들
분별
구한
이어져
세입자
구로
도널드
옮겼
충동
저출산
회생
모셔
농성
##높이
옮긴
정복
속속
데려가
##PS
빠질
감탄
350
공로
강자
유방
넼ㅋㅋ
##동자
관대
종결
결과물
사양
라는데
달라졌
굴리
통령
박성
적금
으니깐
다툼
수첩
집행유예
단편
휴일
망설
##바이트
킬로
들어도
##커녕
선보일
더더욱
리서치
되돌아
170
본다면
배구
어짜피
기리
##남도
전격
선원
프로모
창구
깨지
제의
세여
해온
전진
출처
종족
##스토랑
비호
레스토랑
걸맞
상수
려던
상상력
산지
##20
New
모씨
혼인
신가
오른다
꼬박
장단
##ong
급감
비방
드만
키웠
대요
교재
제동
하수인
뻔히
호르몬
석사
만점
약정
미팅
가루
포용
상원
차림
노숙
##고사
항쟁
과다
늙은이
무작
##셔츠
##주얼
복음
소설가
꼬집
##공항
##다임
고액
암살
패러다임
한텐
MOU
슬퍼
추후
푸르
그제
오마이
지민
표출
행운
오브
##ep
대문
##레이크
관계없이
살아나
이어서
##퓰리즘
관건
합창
랍니다
악취
이겼
기울여
포퓰리즘
일련
어머님
김형
별명
말레이
세액
미성년자
논평
저질렀
변태
옥수
쳐들
추운
1989
육박
내세워
쫓겨
오줌
보호법
프로모션
택지
으니까요
천박
타율
한대
묵묵
했어도
줘요
화가
태권
거칠
구사
트집
##천군
소방관
논하
할매
##베이터
지문
치료비
득실
조짐
자구
결집
여고
빼놓
앵커
환호
사막
근절
출제
처하
보물
흉내
아티스트
내다봤
##갈이
법률안
가지가지
성장세
그다지
미련
클리
천주교
부끄러움
낭만
딱히
##무소
엑스포
따구
갑시다
나르
양승
메모리
방영
동호
##igh
배수
함정
CD
오사
실화
##부패
화법
스파
노골
외고
##LED
맞벌이
척결
풀려
승계
##기구
긴장감
달려들
총기
열쇠
부정부패
클릭
매개
속상
잊어버
개검
앞날
역임
환승
도배
가리키
##원지
단단히
떠날
스피드
중화
마신
##DA
적성
on
저서
각하
크로
김성태
드레스
금수
막장
이라든지
##학규
신한은행
카르
소액
수칙
광산
##재판
넘겼
안쪽
06
##경기
네놈
밸리
검출
밤새
폭넓
향수
##일랜드
연내
로또
그까
갈래
현수
강동
발판
밝혀야
되살
##ㅎㅎ
인삼
총체
우동
속한
분포
503
요법
키즈
쓰래
날아가
온천
고양시
전대
이듬
도라
어린애
손학규
쓰여
마실
궁금증
조선인
주작
그랜드
##이나
속국
비단
##병대
##버트
CN
악기
한눈
반갑
방문객
인문학
욕할
정립
##틀러
싸가지
휩싸
아쉬운
고선
주전
정관
##ich
퍼트
##ER
실증
잘사
112
정했
##uc
선량
해치
강변
나발
채취
지원자
##크로
공매도
그립
아이스
개신교
틀렸
제이
디젤
##ung
친정
KA
워터
김선
##러스터
오름
그해
텐트
귀걸이
맞물
울음
##반대
몸매
기침
클러스터
04
남조선
범주
똘똘
감독원
숭배
유보
통역
늘어놓
제철
저절
스러움
독려
우세
##러기
FI
거들
##외선
교감
이듬해
다각
불평
이색
보리
중형
아메리카
가르침
박상
그루
##박이
위력
서정
복사
이뤘
각기
힘쓰
연구자
어지간
알파
에라
간단히
##ge
갈비
공모전
보궐
음원
징글
보름
설득력
자손
장마
개그맨
공청회
그늘
트레
용납
살아갈
정동
신지
Com
백지
유언
##te
부담금
김승
던진
돌아올
##실험
몰두
들으
종말
선착
하네
처녀
국물
로고
에이스
저절로
혈안
너머
지형
바가지
프로세스
근간
##십니다
##자원
레이스
개도
가담
자책
방구석
잃어버린
운반
분수
ch
전과
느껴졌
숨진
단말기
잠재력
수거
거니
스페셜
창업자
발음
불출
뒤져
원형
간직
할텐데
음식물
##IST
실컷
베이스
장난감
더욱더
지저분
모험
컨디션
야동
지루
빌미
물결
##폴리오
예매
포트폴리오
민족주의
민선
빨래
첨부
올라갈
연쇄
해변
죽여야
존재감
말레이시아
민사
금연
사제
광우병
나눌
##욕장
##페이
펼쳐지
기념식
##갑니다
적혀
아버님
레알
발탁
여학생
KBO
놀란
맞음
강대국
승차
력사
de
결함
시일
이완용
라든가
을라고
끼리끼리
##TV
초보
태세
아휴
경보
자택
몸통
냄비
과징금
길러
타고
올려서
모음
Un
폭염
국산화
놓인
구장
우체국
##뜨려
소나무
투기꾼
625
1950
박종
기업체
흥국
낙선
로맨스
창단
척추
한복
렌즈
##린다고
을래
시한
제법
막혀
용감
내라
냉동
사라져야
싸그리
입소
구민
궁리
물어봐
남경
뒤따
매트
쏠리
찌그러
외화
화두
찬다
스틸
영수
고속도로
작살
놔야
디스크
##서리
국기
꼼꼼히
지름
##자치
눈깔
합계
최경
다던
안개
권영
미분
주시
먹히
불륜
출력
김명
치고
에프
KO
튜버
빨아먹
##사상
낙하산
녹화
외상
와이프
중세
차렸
모호
했으면
코메
오토바이
도요타
수두
훌쩍
이어진다
제네
연비
눈감
시당
영등
파생
정한다
##if
마음껏
뜨거
호평
발자
수직
비아
소니
존엄
##라이트
마귀
풍요
##연구
엘리베이터
비명
빨개
조립
고종
가뭄
문체
연차
밥상
질러
햇빛
무제
##국수
간절히
도래
올라왔
핵실험
##ran
##오스
발송
휘두르
여행사
악재
##의사
##se
익히
따름
줄께
유래
아비
시킴
증후
탈세
할께
구제역
분해
##서야
가령
하원
부적절
떨리
볼거리
복지부
대본
내버려
114
평론가
고구마
나비
강정
성역
셀프
달라질
손쉽
이왕
찾아왔
저질러
시흥
금전
노래방
서리
팍팍
다투
될까요
제자리
개한
펼쳐진다
##쓰기
평상
비위
##보내
호흡기
홍성
어딘가
사이코
아르바이트
신차
써먹
원산
라더니
온실가스
캠핑
살포
환급
벼슬
로켓
김밥
사각지대
염색
말려
탐방
역세
노르
동창
못함
통산
휘발
폭격
##모습
시책
유난
몽둥이
익명
##FC
들통
짓밟
전경
민속
씨앗
여름철
자유주의
대피
윌리
스캔
당당히
담임
천막
번영
유병
Th
시속
##물산
세율
염증
조류
울산시
하구
눈높이
직위
취업자
유능
도매
입건
찔러
MS
용이
늘어지
애국심
장갑
원단
동굴
각별
신흥
AS
연초
페르
발걸음
##oT
정점
sns
부지런
LNG
이경
쌓이
##불리
유린
케이크
오너
도데
베를
수감
흘러나
꾸미
삼성물산
암시
##서구
##저것
##운다
재판관
이국
##하고
플랜트
돌려주
저럴
##감치
##인지
담론
Con
대명
##찌감치
쏟아져
##코올
아세
어미
기업가
입양
좀처럼
아미
소아
수요자
본데
스킨
시리아
라던
방가
##수산부
소폭
진행할
김준
사사
188
증거인
할려면
친하
비스
성남시
악의
인맥
히틀러
랍시고
뭉치
수백만
대동
메리
경감
직선
고심
이것저것
롯데마트
여럿
엄정
아껴
껍질
회화
현관
읍니다
현충
원자재
드라이브
신원
집니다
VR
다녀온
##크라
금년
##왜란
##넘기
실려
내국
각성
증가세
하버
선점
제치
움직여
잉글
꾸려
기념관
장래
벗어난
끼워
포지
SS
##키스탄
TK
임진왜란
납세
##트라
내기
오케스트라
제임
포스터
도무지
통째
증설
았었
호재
주입
항구
한인
만료
해양수산부
거늘
CC
자처
아지
마른
중얼
상습
올라서
미일
정조
##구장
물어뜯
특집
애플리케이션
몰라요
필드
위태
IoT
구절
주적
라인업
아까운
반문
씁쓸
기미
필연
매운
종편
##떨어진
도데체
개원
국유
비대위
가혹
선대
이리저리
역동
올라온
실리콘
정자
반지
배추
수요일
영문
##더스
후보자
파이팅
속초
농지
##호텔
전가
중심지
청정기
코메디
탐욕
전투기
넘어갈
생겨서
군주
##시오
분립
아닐까요
증후군
탈취
정진
남친
가로막
##스크림
알코올
털어놓
끝장
올레
걸어서
밀착
대리점
##민석
이빨
쉼터
약사
대법원장
급급
##EC
본토
충고
뭡니까
경희
차가운
아이스크림
성지
##하니
워킹
면모
교직원
샌드
부의
환기
이세
연평균
향했
##90
구형
자이
테크노
박쥐
잠잠
학급
##병원
풍기
막강
##ort
꼼짝
느껴진다
그르
김주
##데기
보스
아마존
조그만
다중
수만
변한
상기
일회
부평
세비
걸림돌
##리에
치부
도당
안다고
멋대로
본문
AR
는데도
여정
창당
할리
동맹국
몰입
숙청
바이든
##몬드
당대
수량
알레
넘어선
김문수
is
렀다
SP
암호
상표
##러워
##스카
내다보
마이클
일조
정우
건만
유쾌
시동
무늬
이진
내편
원한
서열
몰이
긴밀
패밀리
문화유산
가이드라인
표적
장난치
수두룩
산재
미드
불어넣
사관
폭스
구래
판교
##파리
대란
객실
김연아
동경
##기금
다스리
거둬
이송
귀여운
아일랜드
오오
정준영
끌려가
사주
제임스
웹툰
가세
책임감
오스트
공대
##크리트
셔츠
사회단체
구실
복제
반하
mm
과거사
축복
찾아온
학사
해피
섬세
절벽
티셔츠
##ld
Le
경연
다더니
성주
##성기
압축
농수
##클럽
칼럼
후유
##일정
유머
호황
##iz
깔려
##겨운
철새
까불
철면
끝났
##퍼런스
바꿔라
비해서
누리꾼
여행객
흉기
외로
할당
고독
설탕
항복
만행
애요
검열
목요일
이화
당사
신조
영동
##리포니아
캘리포니아
갇혀
아주머니
콘크리트
남미
더위
보답
##우리
표결
탐색
한시
스물
이태원
##질랜드
인지도
노려
보드
뉴질랜드
##방울
담주
##시대
절제
움직일
##EA
##플러스
의사일정
진짜로
도피
불로
LCD
여력
원동
영등포
크로스
유니폼
레벨
아니한
##테일
탐사
훔쳐
다가왔
##뉴스
입체
안드로
적화통일
유학생
연안
친다
인조
서초구
목숨걸
연체
서사
근접
오케이
했어야
쿼터
동등
상속세
유진
##어가
펼칠
펑펑
총살
물자
스터
정문
go
kbs
중국어
운영비
알뜰
수료
썩어
국론
행세
하락세
풍력
장외
깃발
장부
수필
##MC
면역력
##외과
##소시
정례
무자
대면
리듬
##ain
가늠
군림
##너무
미미
권장
사나이
엉터리
취했
뚜껑
계셨
딸기
배고파
법규
입수
찬스
선의
세탁기
강호
증폭
궤변
전단
퇴직금
서른
##마다
구기
치마
회로
실사
##타르
보안법
버거
##마토
버디
윤지오
넘긴
따까리
서원
개똥
못된
계획서
원본
발부
유선
와도
유한
마운드
헷갈
불러서
병우
의리
신하
##태프
몰수
자치구
##돌이
줍시다
##생긴
잡아가
초콜
메디
##세이
사범
약세
사탄
##제철
재킷
냐구
요지
##ll
깊숙
돌아서
파급
줄곧
노회
삼각
시시
한발
옥수수
행사장
도주
등재
탈모
김천
어쩐지
동대문
홈플러스
불화
오사카
Pro
들여다
급히
식탁
센트
돋보이
심리학
회원국
머물렀
로스쿨
철면피
햇살
가꾸
##tbc
일찌감치
배민
아파서
방과
속내
권력자
갱신
단합
판례
##LS
연고
캐스
##av
##랭이
이현
떨거지
출세
베이비
번방
##포트
김구
겨울철
시공사
이룩
취할
국책
엄한
증말
##린다는
잠자
예보
지친
합격자
##르기
단결
##사이
박태
유무
CO
임하
산다는
닷컴
##재단
##망이
##협회
지독
##소시엄
컨소시엄
미분양
##ㅠㅠ
라임
지면
파문
행장
HD
원로
범법자
이긴
자정
무거
재주
천황
ES
가두
복권
골자
경전
어버
교복
모녀
미끄
쳐다
맛보
이이
농부
살인자
도우미
해수욕장
##ence
이뻐
페미니즘
국왕
초상
시그
귀여워
동국
비춰
패권
배럴
입당
명동
틀니
넓히
원작
야근
특사
처해
잠수함
잊혀
행적
다고요
금고
끌어내리
썩어빠진
태영
아르헨
구려
추신
항암
OS
재테크
102
낙관
흔드
아르헨티나
나주
##사태
종양
기량
잡혔
##러드
패딩
흰색
메가
##ib
상류
경쟁자
나와도
타결
클린턴
안락사
집어
대리인
할게요
##렁이
늘릴
뭘로
##ial
실형
PO
정형
남발
국지
스리
유총
재심
베를린
##다나
재편
과열
포천
장터
스톱
이식
문희
가져왔
묘지
파운드
폭풍
마루
허무
##고루
두뇌
마찰
넷째
##피탈
##이자
나불대
맛나
흑흑
헤어지
##ㄱㅋ
김학의
곡선
개탄
한답
악랄
이의
라구요
노년
텃밭
정전
배신자
##타리
최우수
유상
붙인
##수아
##박스
플레이오프
테일
두들
셔요
풀어
화보
바랄
정치검찰
사이다
단기간
머물러
하나같이
솜씨
이나마
박진
걸린다
퍼트리
굴욕
말미
대림
양호
현수막
##man
경부
집중력
찬반
현혹
뜬금
##타이
야비
서운
풍년
김희
떨어뜨리
전례
기술자
##네스
신용카드
헝가리
임차인
출하
주지
맞춰서
블라
소수자
##무실
소고기
이양
심층
어설
눈치보
오이
날렸
부엌
연구회
주축
원시
컨셉
편드
쓰러지
철학자
박이
박살내
105
더러워
내몰
끝판
의왕
승자
벅스
비씨
박용
나이트
나리
대담
##ss
im
의의
믹스
예견
중진
제대
박통
어지럽
묵묵히
잇달
장로
반격
위헌
방울
거창
민영화
##ly
상점
알릴
기저
스무
이인영
글구
모른다고
혹시나
손꼽
손길
마사지
ㅌㅋㅋ
울릉
추워
살균
둔다
##tive
역풍
투사
일본어
국사
한다니
생전
주파
띄우
##olog
##러져
임마
반장
다녀왔
들어라
안쓰
납입
##플레이션
이용객
질주
줄지
직구
순차
일으킬
양주
유비
지칭
들어섰
대역
불당
융자
타선
조속히
벗어날
전임
##무니
연소
이광
총알
퀴즈
전일
치른
골고루
시위대
장거리
피트
아바
망명
잔액
고마운
들러
이면
아유
윌리엄
불길
어땠
줍니다
만찬
판문
브루
경협
당나라
희대
##소통
EBS
으냐
품위
서적
재택
음란
자취
의사소통
저조
기강
염치
1986
개체
회의소
기인
부려
닥터
문경
슬로건
시궁
양평
흘러가
또래
끌어올리
능동
붙였
결실
하태
단골
보이스
불의
계집
휴업
##ass
거래량
서브
SW
아이콘
파인
초고
다간
파면
지방세
문인
추신수
장하
##통령
##셀러
정몽
총동원
대포
##데스
고졸
남매
남다른
팽팽
##에스
직시
무형
전문점
물들
성원
기본법
심재
kt
책임질
챙겼
문단
고모
한몫
##와이
브라운
민망
토양
삼진
텍스
노망
을걸
정세균
일생
유익
처우
왕복
알아듣
브레이크
나옵니다
손절
당도
##브라
세븐
뭉쳐
##벤션
저승
미혼
카이
개망
첨가
폭등
전향
##위병
약품
인질
박지성
글쓰기
압류
국한
##테이션
압승
열람
빨대
용병
자궁
강물
조공
미션
An
양질
장애인
넘쳐나
선심
러닝
합산
부령
드문
그쵸
카지
산업은행
일거
망친
폐하
중소형
홍대
로움
앉혀
포로
안함
밝힐
일어서
골수
후안
컨벤션
나부
리버
워크숍
데려다
응징
거액
##더기
모방
휴전
함양
##10
독립운동가
보호자
호가
소방서
기껏
혐한
##ark
##드려
담합
모듈
할라고
남짓
동방
체육회
거듭나
라라
후유증
형법
이뤄지는
영재
열광
##용석
##기부
울려
일러
수영장
야채
적법
사거리
지라
그렸
##징글
조형
강수
오산
멸종
붕어
문헌
레이저
돌아섰
페어
진해
수사관
가급
항일
공예
##TI
가평
수저
##가족
섹시
이별
##멘터리
무안
맹목
고비
춤추
##ond
깨어나
라스
타락
색다른
포부
완주
판타
No
수십억
설교
각도
물어야
발열
다큐멘터리
성령
노화
더니만
공구
세울
판문점
폭파
지롤
더라구
국력
##저우
추이
늘렸
날카로운
징글징글
여우
인양
##테스
간신히
무수
불문
달빛
바나
##MA
기질
구인
기일
모자란
공과
축사
##먼트
결사
방사선
품종
후자
##이도
양도세
리드
불출마
##팡이
할라
강진
참담
수없이
위촉
##허가
다이아
그럴까
흘렀
열망
한식
추한
순방
어째서
테니스
시궁창
108
이케
잉글랜드
전시관
담화
토종
쓰리
두려워하
잔디
임대차
OLED
각광
일식
작곡가
제국주의
골라서
옥상
##버거
겹치
##하하
인신
도마
가져올
간장
절로
수출입
SC
병실
수정안
줄였
부엉
성장률
NO
열흘
##ear
법학
넓혀
##다듬
염원
##end
생겨나
민자
카카오톡
##지도
시군
난방
이장
신랑
##뉴얼
너그
가급적
##업소
까라
센스
정주
한들
##하장
구치
낙인
##age
무당
임산부
궤도
자나
##꼬리
재임
고부
그래픽
배기
공격수
휘발유
집필
복장
DJ
차입
구워
중위
얼만
완치
코레
주워
내륙
들먹이
김원봉
관습
목회
사치
축내
흔한
##ith
##테랑
불타
살아왔
랑께
찐따
발동
산악
##겹살
원했
불빛
전동
근성
넘어갔
예결
지리산
##리안
김여
초콜릿
까발
마술
똥물
에피
재차
원피스
응모
가결
경제력
로워
삼겹살
예뻐
효성
민간인
발정
니라
래요
삽질
드셨
자초
밝혀진
발사체
입각
정숙
인대
파동
휴지
질렀
Ar
정반대
우량
것다
글러
속출
와이파이
미생
풍선
토해
하트
사업가
ETF
186
##사스
##월드
##근무
유령
성동
본연
원서
이끈
소용없
승무원
불려
차명진
못사
미학
백종
김부
모릅니다
1985
시멘트
캐스팅
모를까
직결
에이즈
대검
실검
인민재판
가져온
남산
무마
수억
부임
박인
##도어
온다고
다듬
김세
전전
연예계
군포
보낸다
회상
퇴원
##서스
대교
가마
호들
히로
남동
내재
노비
##생명
##고속도로
##징어
경품
동전
었었
팔린
불펜
퇴사
tvN
종교인
챙피
연임
무사히
습득
매뉴얼
나눴
오디션
촉새
문항
타수
물갈이
사탕
하도급
해준다
생략
선착순
아작
명명
수순
이뤄지고
잡것
놀러
요령
니스
베풀
상고
버틸
무난
부제
불능
##공단
계약직
앤드
극도
##관광
08
영화관
외쳐
##저나
신속히
허공
전한
둬야
생김
쌓인
나팔수
생물학
관리법
사령부
김남
스러울
매크로
##데이트
양키
##ne
감금
려다가
정부안
##per
사마
돌연
##AS
바이어
187
견딜
복도
강기
배고프
수반
박사모
엄지
침범
성전
요란
은행장
반값
쫓아
폴란드
십자가
##나물
주춤
힘써
re
뜻밖
내세운
시바
##신저
국공
수동
내포
##루미
설령
그레이
##폭탄
고령화
어휘
완장
WTO
상륙
들이대
광경
전념
업데이트
##현실
재래
항해
보여서
정보원
모빌
하버드
##커스
중앙은행
냉전
몰카
햄버거
찾아와
호박
트롯
업주
불명
영수증
무너져
사신
하차
심신
하남
중고차
##ack
아재
야겠다
대두
싸지르
##자유
그나저나
주당
##ory
1300
할지라도
한중
내정자
병자
가야
더군다나
##ry
으셔
검색어
설리
음악회
강북
제조사
차종
CS
남해
동무
이시
##라기
##준호
굴복
호들갑
정적
힘든데
신데
라던데
세로
##김없이
조경
헤쳐
지회
빈번
텍사스
괴뢰
색출
프리미어
적반
당뇨병
별지
아팠
아이러
김건
이은
당국자
입문
##ust
리본
물체
##전력
삼촌
이라든가
통찰
변질
유서
##스테
속옷
이걸로
검역
맞아
당진
훈훈
통신망
자외선
탄도
##느니
막힌
주어지
##훈련
배워야
여배우
증서
불상
구급
챙긴
댄다
뿌듯
##부모
공립
내시
차등
베테랑
체온
접촉자
Sh
왕실
##비드
격렬
드러낸
건대
사업주
심보
트래
두부
내려갔
자가
키보드
건설업
##ES
손수
너무너무
##장구
옆집
손톱
##사랑
홧팅
참여연대
행안
무심
##패스
볼넷
준거
최태
얘길
사촌
사임
이스트
대성
아시아나
240
기다릴
각계
의구
헤이
아시아나항공
##전지
오렌
검사장
날조
배움
문법
종로구
나을
실린
접시
친근
내려왔
1984
소리쳤
똥줄
##RA
문예
부시장
심했
부러워
언스
군사력
부르짖
본보기
##법인
수평
노태우
상급
저분
우째
명상
무분
절박
재즈
호전
보라
셔도
컴백
과하
피난
왤케
##언스
표방
적반하장
심히
조합장
착오
##GA
마마
이강
번쩍
한없이
무너진
라시
서비스업
효능
승마
책임져야
현행법
125
벌어질
분자
돼지고기
어울려
태안
실버
정제
퍼부
수제
그리도
하태경
여동생
정돈
포드
강용석
수월
어다
123
주상
홍삼
조망
성균
PB
놔라
보금
단군
##처분
쉬워
동요
악법
입주자
보금자리
모리
성균관
깨우
유난히
오징어
총경
1800
쓰레기통
인위
스윙
흘렸
토마토
충주
자행
스케줄
김두
소진
아니요
최장
대도
사우디
하노
증자
치를
홍위병
여군
wh
자작
공산화
En
방구
115
기꺼
##방송
CP
반감
동거
##지우
세계인
아이구
주저앉
삼성그룹
##ational
뜻대로
과대
순찰
직종
안목
아세안
발끈
con
곤두
전처
캄보
진이
다신
떡검
넘나
##슬라
요한
애라
360
생산자
##엑스
보직
다뤄
스미
벚꽃
경신
알렉
노동력
그라운드
어긋나
여겼
쇠고기
연산
손발
다저스
소파
평상시
어학
응하
최성
능가
산물
스타일링
섞인
정선
방면
사운드
돌려받
사채
유류
오렌지
유럽연합
카라
진다고
동탄
경쟁사
박힌
저마다
남북한
입단
기습
se
풍자
곤충
기승
##실히
진통
의구심
원동력
운수
섬기
저해
늑대
우라
고아
현대인
220
을라
##가치
산다고
의전
##IT
악영향
시카
##렉션
동산
판로
자위대
##베이션
뿌린
기관장
카리스
둬라
정류
한은
보수당
라지
조업
연방제
개꿀
103
항소심
입주민
무주택
함량
스피커
09
욕해
신났
테이프
고소득
아인
##어붙
방관
화자
모가지
들린다
##oh
한판
시어머니
##경영
따돌
조처
CG
해냈
병상
땜시
운동가
불허
ㄲ들
때렸
친해
sh
고품
할땐
##네스코
레인
의아
마리아
##오리
안민석
##단다
1600
도정
정장
한기
##시효
약탈
화요일
대서
저급
김한
거둘
김호
생명체
캄보디아
동학
국수호
눈부
이기주의
몽땅
드래곤
깨끗이
이산화
돌아간
특색
사나
하와이
거긴
끓여
견뎌
털리
팔려
##플렉스
제작사
시내버스
휘둘리
ㅌㅌ
배임
루이
깨져
부흥
영사
레이더
코오
판국
꼬마
커진
정쟁
사회악
경원
인해서
##운용
STX
지나갔
창설
허술
복직
디언
플랫폼
양수
출원
플레이어
기꺼이
분비
위함
##립시다
집행부
우두
당한다
무너졌
유급
박재
Sp
사외
취재진
특급
##평균
반공
일안
##박혀
배워라
보냅
부의장
##부진
유네스코
절정
치졸
습지
용사
하인
행렬
퍼뜨리
##만금
##ant
자백
쥐새끼
무작정
부위원장
박병
##ber
침착
틀어
남측
숙명
자생
사옥
터뜨리
be
세워야
입자
덩치
끄덕였
청도
홍영
위인
주파수
카리스마
구했
스티브
카지노
지질
미얀
De
일리
청계
타도
양현
막론
쌍욕
매몰
노회찬
열사
슬쩍
전장
해역
##용지
돌릴
명함
김윤
##십자
옵니다
450
귀농
철판
올라간
관리비
여라
후반기
나아지
조조
무너뜨리
##체인
차이점
명사
호칭
##IN
달걀
검장
이철
프레스
딸년
드러난다
해답
문희상
미네
친분
삼청
무신
박계
전문의
부끄러워
무분별
365
검찰청
철폐
##for
무방
한라
로선
##순환
떨어져서
노라
외교관
##마음
우드
직속
1982
남양주
성도
불복
적절히
였으면
묻혀
이창
사육
제왕
##ism
종속
재빨리
양승태
올라와
극좌
살까
메신저
LS
야구장
무궁
인플
죄책
전승
줄여야
용의자
안드로이드
관문
푸틴
다시금
천문학
침수
이노베이션
상응
북방
에버
잠복
어떤지
회고
타깃
칭송
독선
경악
##총액
교단
시가총액
하사
##세우
조두
방패
지나간
매너
강당
대덕
농약
야심
사용자
경영학
무얼
두껍
질타
잇따르
##소드
수박
원치
자중
장본
코오롱
자주국
나뭇
빈도
에드
공룡
기단
##말이
로다
당해서
소양
잔재
후계
관악
국보
두드리
힘없
김미
마나
심부
형벌
대책위
받아들였
니미
자산운용
댕기
본점
잉여
격상
파시
스프링
호조
내려온
##업자득
비빔
내려서
미필
고찰
본색
기다려야
가설
한껏
##ice
김혜
단연
jtbc
시연
##ID
후려
결여
나왓
두께
##바꿈
##우마
##보험
신안
실재
느리
구조물
새만금
자업자득
주식회사
터뜨렸
실로
부속
미약
마음속
응급실
소굴
##상부
비법
##돌아
끌어들이
릴레이
무례
성조
07
세심
김창
바꿔서
##면적
내쉬
공채
외무
밀어주
무진
몰렸
을려
백종원
시드
규격
진다는
콩밥
신뢰도
an
꺼냈
소박
원만
교리
파손
떠넘기
CBS
##기에
3500
##무치
검경
자각
금세
허구헌
KCC
종신
초미
독창
취업률
의병
죄지
테마파크
블록체인
공정거래
공정거래위
인텔
택하
망각
지겨
자릿
예년
하소연
뒤집어
송이
떠오른
타고난
미워
소행
군중
##위치
빌라
무더기
루타
샐러드
포지션
##은혜
방송인
메이커
오라
원회
햇볕
가져와
는지요
분권
상거래
전작
영부인
바늘
잠자리
가릴
안티
굳건
회사채
돋보
##지기
##라야
만물
참신
톡톡히
아이러니
도울
만두
해병대
인들
거시기
어둡
모자랄
나랏돈
이건희
MV
거침
극한
##벨트
넘어지
아모
수비수
지치
충청도
가부
높인
준다면
결말
피터
하동
대꾸
고분
드릴게요
멘탈
104
결승전
복판
쌍둥이
대남
채무자
도적
이관
개고생
자주국방
부칸
안면
##수지
원산지
복종
외관
가뜩
계파
간과
얘긴
입히
문턱
할리우드
짜장면
개발자
표창원
동점
신음
##어로
##관리본부
상반
의존도
볼모
1400
나날
챔피언십
##진보
정해져
계몽
우뚝
드러운
##삼성
순조
처참
특보
실험실
피력
장년
녹지
경희대
민관
밀어붙이
##ook
구비
##화물
김현미
본회
절단
분주
광대
회색
체전
재물
매춘
홀딩
아웃도어
워치
선한
##서니
던데요
우짜
해야함
로버트
설쳐
만져
으실
##줄기
접한
기고
대의
차마
점프
설화
치가
헤지
##내기
역쉬
꼬투리
서슴
책임져
평준
처넣
질병관리본부
붙들
불사
클로
편해
바디
기술원
그런다고
촉발
박혀
싸웠
호로
느라고
필기
피싱
왼손
안일
들어설
세계관
다정
고충
트라우마
투구
동반자
CNN
우려먹
남로
초선
경제자유
경제자유구역
인권위
가식
때린
토리
세분
바이올
밀도
충실히
농축
아닝
체면
즈음
고등어
승소
화산
기용
소식통
나와라
퍼졌
##RI
개량
든데
쓴다고
가뜩이나
아따
카트
여적
1930
올려야
##부림
라지만
포수
예기
시킨다는
탈바꿈
##대교
##올랐
적힌
치켜
현기
전세금
당정
받들
희한
조져
1979
올려라
다방
스며
지쳐
거스
지기
XX
넘길
미주
몰라라
귀하
신영
결재
머지않
약관
정중
수자원
몰아넣
경지
성급
구직
난무
일깨
먼가
거쳐야
르네
손녀
수신료
노스
경향신문
꼴찌
##어서
성과급
실존
세단
##패드
계명
미숙
딱지
명백히
찔리
시크
죄책감
큰소리
빌붙
거려
삼척
웨어
증여세
보트
맞대결
못해서
조심히
아다
심포
약식
지주회사
비관
발등
조두순
파스
쓰러져
선다
뒤질
통닭
문어
아세요
되새
부턴
판치
웨딩
사용료
섬나라
맹세
잔당
헤아
처신
무증
사이클
의료비
목동
낯짝
후세
변론
##레이터
간혹
1983
김인
피지
조선소
르노삼성
다크
그레
오스트리아
영하
일개
##TN
울타리
스태프
사당
됐으나
청아
히어로
##들인
짜르
고위직
걸까요
교안
본국
닥쳐
외제
오타
장시간
외우
소위원회
##나와
바나나
##one
대위
한국전력
펼친다
관철
방출
존속
세자
아부지
박해
##부르크
윈도
섞여
내려와라
도끼
장본인
공관
띄워
재검
올바르
마일
북송
추리
##회계
모스크
초코
스캔들
지음
빠져서
사살
두꺼운
매달리
퍼시
후임
##나니
올인
급변
ㅜㅠ
무성
이온
포르투
이루어질
눈먼
##구려
남이
가미
넥슨
유승준
양대
시력
후안무치
맥스
몰랑
따라잡
고함
에고
싱크
누락
만든다
유저
끌어안
악순환
교포
더워
적국
##AE
암울
의협
##부분
뉴타운
분식
##무사
##라미
법상
방화
터트
시련
난감
누워서
요기
##안전
희귀
신곡
##ight
스티븐
헤매
##세지
수십만
돈벌이
##mer
치욕
##버렸
연기자
우왕
##ect
그니깐
막연
기점
외압
재외
펼친
##프리카
흠집
본받
처사
##로우
환산
신분증
뎈ㅋㅋ
스탈
185
생체
청중
어지간히
코인
you
다닌다
기억나
버섯
사이드
애완
숨쉬
임박
오리온
두려운
총무
아리랑
태아
싫어하
##진보당
맞췄
자자
가처분
바닷가
드려야
더운
표절
##더미
2025
라이벌
출고
도미
SOC
개망신
구치소
원상
에피소드
볼일
마땅히
산행
요가
난다고
챙길
습격
야드
어려우
총생
##웃음
저격
눈썹
만난다
방북
머신
게스트
저년
과외
소변
갈지
다급
컬렉션
국영
의논
ㅆㄹ
통합진보당
공교육
불어
올린다
##코인
미생물
그릴
견주
따라야
노원
이바지
끊임없
반항
##tern
신청자
기관지
태생
사업단
호위
순회
빠짐
카타르
원룸
낯설
망가지
커머스
싸구려
만연
덴마크
줄인
고스톱
미인
양말
기웃
부응
속아
투표용지
징그
허벅
공소장
나락
움직였
##프리
점거
예술인
발암
평안
건데요
불법행위
Cl
심혈
병들
재산세
조수
내전
매직
##pp
##ens
미역
##날레
왕창
항로
107
요동
민변
##꼬박
대지진
알레르기
꼴리
DMZ
송파구
생각난다
두세
채권자
창궐
##ik
꼬박꼬박
끼어들
홀딩스
간질
참패
조영
##AR
요거
쌍방
PR
밑바닥
벼락
사용량
버블
땅값
집권당
군복
##시험
##베르
내려라
의거
승강
내세웠
풍속
##막이
국밥
만장
서두르
타석
말살
빙신
상도
##무가
시뮬
대표자
아우르
둔갑
여느
피디
##베스
방조
지럴
외래
월간
영천
청량
살펴볼
반론
일찍이
렉서스
발족
굽신
경마
직책
상회
선보여
꼭두
독립군
야만
개천
행정관
대우건설
디즈
##어져야
##잔치
맞물려
그물
연구실
수천만
메시
일어난다
서산
과반수
적임자
##ary
수돗
군청
김유
마차
깡통
슈팅
낙후
모빌리티
##qu
장보
인아
민법
얼어붙
실수요
판도
아사히
맞붙
안전사고
황사
귀중
선호도
각인
늘어난다
살인죄
문신
자폭
판타지
눈동자
리니
비준
데스
볶음
대표단
모텔
비트코인
총생산
법위
나열
모처럼
존슨
##18
##불위
세일즈
숨지
##퍼니
상여
외롭
반대편
군단
##공원
이방
코앞
자선
##납니다
##수리
간지
피스
조별
활발히
이월
절친
매스
##키퍼
##당초
반칙
106
미얀마
온전히
이소
정대
##ov
기득권
양당
희미
공법
골키퍼
화랑
다변
는커녕
파우
##으므로
판단력
##시지가
정가
회복세
##디스
공시지가
보료
쾌락
상하이
##꾸라지
수표
직관
감격
대전시
YG
끝없이
쏟아졌
이준석
송구
쇼트
수중
다이아몬드
늦추
홍익
갑작스
언능
AT
트레이닝
금지법
여행자
스트라이
백작
##겨서
평면
##노스
개인전
주공
자릿수
##플릭스
113
숨겨진
위배
월북
1100
넷플릭스
살린
구구
수염
직격
너거들
물러서
촉촉
##모니
운임
그름
##공화
은근히
쓸쓸
불린다
##OS
외노
진한
다기
로그
노르웨이
본다고
루트
개수작
일명
간당
##ian
파이프
대용
초조
한통
승격
행해
핀테크
슬라이
우웅
휴게소
버젓
기원전
번개
빈부
##여겨
월등
담겼
230
가드
모닝
연탄
미친다
틈새
초라
화내
어려서
할거
##ach
##레나
재혼
경각
매경
터무니
퍼시픽
리콜
교육비
팬티
홍영표
원흉
기동
유수
어부
YTN
반듯
한단다
드세요
비축
한옥
심도
었잖
부엉이
수익금
선거철
세이브
역점
겹쳐
성비
##진구
보여야
횡포
인선
유기농
선풍
컴퍼니
아플
연중
찬사
##뜨릴
딴소리
##예술
삽입
육지
택했
물러가
할걸
1920
띈다
마음먹
초토
용접
따랐
장차
일감
바르셀
수납
자급
거주자
바르셀로나
받아
살살
노벨상
##체어
완수
다발
변국
선봉
##hy
보인다고
폄하
사무관
지으며
총독
##기지
과언
사수
최하
구슬
연명
외계
가래
##습기
도자기
담장
핀란드
정재
유가증권
방대
알선
수돗물
채팅
교보
신진
시아
설레발
뒷전
환매
##꿈치
눈여겨
사라져라
성기
갈기
부결
폭도
수식
##보잡
크레
화질
오리지
져야지
발자국
계류
돌린
자의
휠체어
공명
PE
취득세
##관리위원회
엉엉
증강
사스
학비
선거관리위원회
신재민
장애물
별장
작물
중추
##철도
전시장
종가
현주
Kore
##디움
분담금
정류장
오지랖
시네
##구름
라우
주점
웰빙
##호영
막막
김관
##AT
송영
부역자
##바리
속셈
직영
금태
##투스
건방
냅두
다자
영도
몰려들
됐었
휘말
##사실
빨간색
돌풍
허벅지
##찌개
계십니다
##마리
순례
고위급
듣보잡
현미
구태
이뤄져야
리터
도보
비만
블로
109
133
여친
도태
일류
목적지
일화
머무르
악몽
퀴들
원주민
어스
자랐
경제성장
##부상
다거나
pro
옮김
평화통일
뒤덮
반가
LPGA
상설
##LL
여행지
##국적
광기
박경
서재
물려받
128
액세
구녕
시전
총질
형국
sk
권하
국제공항
장편
툭하면
벨기에
가면
효자
강압
멍멍이
망조
페북
135
번갈
처절
##무새
생색내
낙마
기관총
발산
카풀
접전
##나리
놔서
한통속
다카
국무부
성산
필립
차린
루이스
장남
앉히
지오
하마
올리브
진단서
찌푸
엔지니어링
트랜
##PA
거슬러
반입
화끈
안감
이나라
지름길
제때
증원
질까
대일
아랑
속여
쿠바
일수
가액
##IG
폭포
이만큼
뒤쪽
증식
챌린
막힌다
발작
식별
인방
##하이
무슬
갯벌
도산
ha
지날
1981
조원진
목재
독립성
단과
##에이
직급
성실히
출발점
##금속
지평
GB
팔렸
He
##줘야
빅뱅
##수아비
나흘
샤오
시카고
VIP
제소
생각없이
토익
뱃속
무슬림
견고
리바
불렸
양사
급기야
정액
프란
조선업
리뷰
허수아비
다우
코르
셰프
차려야
에릭
보고회
경색
스티커
비오
곽상
지켜봐야
기수
자력
디테일
공갈
얼룩
설거지
왕비
실무자
남대
키움
접할
나기
캐주얼
##비어
##ace
BTS
고딩
다친
간소
경산
알아차
교향
최상위
코어
흉악
태백
급속히
번식
보컬
올라간다
에구
부가가치
상국
##키아
We
곧장
매칭
신작
윤곽
159
해리
최재
오디
강인
제네시스
로드맵
파병
가산점
아웅
광교
서너
교육대
개막전
루수
알아들
할망
산수
기획사
벌벌
검새
두들겨
##공화국
공황
나뉜
성조기
##지우지
매사
반쪽
NS
좌지우지
바우
테슬라
조서
벽화
묶여
통곡
불씨
결렬
일탈
장이
타이거
추행
이북
체조
##각시
둘레
학창
색채
일차
연면적
양면
##무게
미워하
포르투갈
인멸
##란트
과감히
김건모
서부터
징후
다지만
뒤진
서문
##숭아
1900
차츰
거래일
아우성
몰린
반역자
어민
참치
동반성
실기
트레이드
손익
저쩌
##시스코
전체주의
밀가루
몸무게
지킴
진열
신봉
리아
##런트
오영
위계
계통
자본금
자연스레
쓸데없이
보너스
골퍼
한테서
푸하하
보행자
누드
보령
대명사
공사비
금태섭
파행
바뀐다
으이구
외형
지켜라
대마도
세라
전성기
냉면
회귀
##따리
기절
노노
틀림없이
양정
블룸
계발
방산
되돌려
동물원
어벙이
그따위
단풍
래도
갈아입
주체사상
경비원
가진다
치렀
따를
아이패드
270
경각심
인파
냅둬
결핍
경정
벌일
데일리
써야지
##자재
제지
굶주
가전제품
고령자
벌려
mbc
분란
유희
##ical
점진
이루어진다
사재기
야스
한양대
경청
편찬
손질
모발
사다리
성모
세밀
따른다
는구먼
이토록
졸리
판다
##공격
만끽
저술
수갑
수개
##숨에
객관적으로
단숨에
캐슬
##스틱
##십시오
##러미
변기
부두
봉지
1945
비시
분실
치료법
##수원
##곡동
통학
다른가
출입국
의인
달라진다
분신
##베이스
어따
헨리
소품
카레
해수부
허접
창의력
모자이크
성범죄자
발리
최영
해낼
구직자
백날
DB
놨다
쓸모없
내려다보
부녀
게으
선교사
이문
단추
대갈통
갔었
데로
##워야
못한다는
원점
으려나
밥통
한다면서
피크
당파
영농
대졸
베스트셀러
독주
사라진다
항체
냐고요
익스
FIFA
움켜
어버이
똑똑히
지휘자
생사
이공
짬뽕
##ast
찾아갔
##테면
찌그러져
즉석
당면
인민공화국
##퀘어
Press
모토
정할
기회주의자
상황실
인민군
퇴장
망해야
데이비드
실책
권단
##원수
의성
연어
이민자
##뚜기
연수원
수건
깜빡
퍼붓
CF
공보
속담
킹크
수성구
MVP
물려주
유영
##에르
단국
광복절
고마움
감행
타국
오랑
다운로드
아우디
니트
파고들
양양
놀랄
내말이
117
##바탕
##연맹
가닥
소홀히
혹독
음향
우릴
보일러
동감
아항
안도
수용자
숙여
통사
누군데
##폭력
만인
보따리
혈통
##88
샘플
실속
밝혀내
질책
총사
남아공
구석구석
국도
코끼리
상봉
결의안
선상
현존
편협
중원
이간
화석
121
분통
여하
알루미
나올까
쓰인
신변
하드웨어
본다는
출소
벼랑
김우
##BA
대내
서강
##소니
밤낮
수레
인심
투여
##경제
상선
백두산
##즈음
로울
식단
비굴
연재
기록물
소란
최정
##로리
일용
경로당
집요
조개
다국적
돼도
아드
애도
총출
책무
보네
남도
들려왔
사투리
##루엔
sp
날치기
미당
성명서
##전히
다구요
모르쇠
왕성
포격
해내
스쳐
호화
두리
비우
어딘지
밥맛
백배
재일
살인범
에미
심야
엄연히
뭔가요
꼭두각시
졸개
토목
국과
##슈타인
중권
앞바다
관통
연평도
봉급
상단
비료
갈아타
##멋대로
뺏기
무소불위
심재철
추대
그지없
재량
성욕
아연
보유국
반증
죄질
유유
세속
당혹
두목
물리치
찰스
하찮
자분
여수시
텐데요
자멸
184
서해안
버락
잔여
이대호
와대
메카
이를테면
어때요
145
나미
ex
마법사
으십니까
고영
저랬
마력
필사
보성
어촌
읍시다
장난질
해본다
대승
특산물
어느덧
털어놨
해남
##코드
공용
동호회
곸ㅋㅋ
실수요자
로열
비엔
당명
내실
##기술
당권
셔야죠
안위
뜯어
유촉
준하
균열
막바지
폐해
콜라보
전차
맡길
##마켓
나아갈
깨달음
부득
##티스
귀환
벌금형
답했
시녀
거릴
나온다고
as
소인
적잖
비상식
국제법
이산가족
UAE
영예
해줄
##세기
문학상
본지
남침
노고
논다
방콕
안중근
원심
제천
##퍼드
사업체
흡사
뒷돈
사회생활
사노
컨텐츠
이윽
반포
친숙
구상권
1978
영위
조이
일전
은밀
주된
장하성
클레
내린다
어필
잔소리
공휴
##ult
명제
망해라
스폰
아무개
##티지
김은
기다려라
김여정
후대
##마킹
독보
벤치마킹
반경
둥지
하룻
배워서
지탱
유모
전업
김태우
계엄령
말세
교내
##MS
피드
상수도
공해
미용실
품절
한결같이
꾸리
무공
면밀히
임시회
기뻐하
폼페이
역행
모던
숨졌
종부
알루미늄
커져
유흥업소
권영진
##센스
문화재청
이윽고
화사
##나이티
국공립
하물
추궁
코칭
토사
##퇴직
감리
아뇨
비켜
전한다
성적표
노령
힙합
습니
기념일
##프란
껍데기
세법
송전
우발
도망치
청각
##무진
물어볼
##영장
베리
아담
선방
칼날
엿볼
유재석
유나이티
##각각
했잖아요
디즈니
LPG
불순
개막식
총출동
차근
직격탄
대대로
변환
127
##그레
사무국
권총
중상
꾀하
지부장
젠장
싸잡
진흙
초미세
줄려고
화성시
몸부림
배양
PGA
기력
마주치
##BM
끈질
다룰
##내셔널
당첨자
낱낱
라틴
탈피
몰아주
세정
인터내셔널
마취
신다면
빨강
우러
##드름
예우
여간
후문
방호
군부대
ㅇㅈㄹ
집결
징징대
신생아
일컫
비들
척도
##여대
따질
특가
토트
참배
조종사
낄낄
크라
샌드위치
달라붙
사절
요번
##ood
인출
뒤졌
강전
미꾸라지
이희
##DS
제보자
국제기구
이보
##베트
본관
통신부
싸운
구이
수조
해서라도
양복
##도리
불거진
상이
재질
일회용
없앤
ed
뒤흔
스터디
반기문
소소
##예산
견학
122
유대인
뚫린
들려주
살아라
포항시
나불거리
신전
에듀
왠만
진천
주정
추월
하노이
나폴
##가짐
버젓이
입소문
기쁜
알맞
공휴일
하물며
스테이트
경이
뒈지
으휴
기울였
구자
즈그
손주
한탄
배드
안대
무명
상종
정신없
공소시효
무더위
##메랑
지중
##턴트
마니아
충만
이제서야
오찬
재판장
파출
아치
개교
독거
개이
번거
답장
배척
비누
알고
지방분
각서
윗선
곡물
##광역
전경련
서영
세례
부메랑
어야죠
사이코패스
##ps
Al
계세요
맡겼
정차
이분법
대령
##드라마
아크
116
더한
여호
녹차
전매
쿵쾅
유라
이어받
관례
호호
수용소
바쳐
모은다
영산
##튿날
##폭풍
당론
유체
등극
멘토링
건다
럭셔
럭셔리
극찬
산타
한상
##스틴
관용
일진
고파
##게임
##상스
노조원
서귀
채운
이브
지하수
이화여대
떠받
외침
조교
세르
이튿날
##대표제
들인
쇼크
재촉
##치산
연주자
혼돈
웅진
펼쳐진
리오
충원
기색
놀음
실종자
오우
들으면서
드라이버
##자식
가칭
가명
##다르
자아냈
어김없이
셔틀
싸워야
앞섰
골치
주접
악한
##ivers
까보
##모비스
현대모비스
펜션
폐암
심문
월남
누렸
깊숙이
야단
인플레이션
##깨비
간병
자책점
미모
##ual
##축구
386
배부르
고흥
지구촌
에르
농락
주진
폭우
부통령
포크
행방
1700
바친
아토
달려드
사비
짝퉁
명부
##바겐
연준
##조심
용인시
당위
허경영
154
거쳤
흡입
들으며
생필
##버린
집안일
구매자
소개서
잔혹
##루엔자
생필품
쳐야
액세서리
내줬
직인
118
2023
##미안
들어선다
부릴
추론
몸살
속삭
건넸
다녀라
못한다면
동성애자
앵무새
##고래
과격
시뮬레이션
김홍
섭외
줄래
왕위
##다물
발발
당해도
아테
동사무소
분화
##배기
인플루엔자
수퍼
거센
교육자
알렉산
데려오
무법
맞출
샌프란
##oll
샌프란시스코
치닫
안쓰럽
이규
안보리
극소
닭대가리
매달려
재검토
서귀포
후계자
루머
침공
스타디움
출혈
미비
조주
정치가
비례대표제
그래프
이직
달달
반반
Sch
강소
##행사
동명
면죄
호스
온다는
볼래
주임
칠레
##재현
통진
가둬
거머
꼽혔
183
대출금
칭하
벽돌
신주
##ies
활동비
동월
참수
서울역
##날두
이루어져
어떤가
경합
평정
우두머리
도왔
우매
330
오디오
치중
흑백
750
모스크바
교통안전
짝짝
예감
잔류
호날두
Sc
파키스탄
근심
오른손
까마
니즈
맥도
발표회
버터
옮길
가지가
결선
선뜻
면회
눌렀
##일기
폭스바겐
걷어
브이
한태
솔선
생소
보선
합창단
봉건
보호구역
선가
한파
서남
##경찰
다녀야
마요
알아주
203
승률
비공
만든다고
영종
요직
수탁
시끄러
기종
경수
겁먹
144
라야
에디
발기
미묘
마포구
말없이
165
어이구
조계
르네상스
사회학
후보지
담당관
연합뉴스
1973
이어폰
엎드려
영남대
##oun
1965
북유럽
친밀
대타
습성
성대
체내
##연구원
대유
만전
관공
후폭풍
다가올
변할
중개사
불러일으키
한답시고
Pl
꼴값
비꼬
케미
의료인
1975
이승엽
바비
Ed
몰표
카테
훔치
알아볼
당께
물리학
ㅍㅎㅎ
보습
126
희생양
하야
감초
이정현
킬로미터
전입
대열
비박
유병언
동백
##거품
Ex
잡스
포화
랜드마크
##oy
하얗
헌정
문다
장례식장
볼트
표상
보냅니다
주니어
##티아
미지수
이력서
액체
##지마
떼쓰
절도
저금리
지청
벌떡
북경
행성
##저래
변모
취록
끄집
155
명실
##듭니다
무증상
포진
활동가
동남아시아
헌혈
지휘관
NY
작금
##과점
##투자
병동
속지
그리워
##ctv
묵시
북극
##필더
트리플
미드필더
##마을
##ement
##내려
157
요트
야합
##ex
위기감
시종
다쳤
계약금
##현동
조동
ㅆㄹㄱ
해져서
방류
124
토스
토하
##테르
현대제철
260
##제이
탁자
##베리
청소기
##는지
전화기
새꺄
병합
레전
전쟁터
미친개
할까봐
난장
애널
신보
132
필지
##팩트
평창동
짤라
망원
미쓰
건축가
챙겨라
노친
시댁
점주
핵폭탄
뱅킹
생강
파나
캡쳐
농심
맛난
휘청
죽여도
묻히
울렸
입안
몸짓
영변
퍼스트
각본
경성
페널
280
팽창
DS
월평균
굴뚝
숨통
##이치
PK
묘한
신정
재미없
오거
일간지
백색
울주
아군
경직
##승환
골목길
잊어버리
내려앉
터진다
175
가위
보탬
최경환
입상
라운
나부랭이
허탈
전폭
열일
연못
특목
건너가
맡긴
넘어간
수뇌
주스
나눠서
멋져
익산
은디
##격자
179
이석기
소시
씨름
일주
레지
이효
자서
편익
안전망
향토
반중
귀속
by
논점
##ost
BC
겠지
뭉개
유태
빚내
테라
강서구
와요
4500
##하늘
갈색
##비치
턱없이
자연환경
독성
무실
대의원
요런
코디
정상인
치루
신촌
내비쳤
젊음
혼잡
경기력
까요
##lic
레전드
노린
초심
양형
궁전
##ere
따라오
스노
중장
트인
유례
공허
##orld
덩달
##ae
고운
코엑스
수긍
스폰서
열등감
빼내
##것도
가락
피겨
초밥
초유
엿보
판매자
소동
가솔
조사단
쪽발이
번복
리라고
연세
##스트리트
무너질
##ru
금산
알림
몰살
쪼다
올스타
말년
사명감
울부
좁혀
요정
지겨워
어서다
쉬쉬
도루
꼭대기
리비아
바그
진료소
미화
그래두
##문서
##메이
거미
로우
벙어리
동래
오리발
인허가
일쑤
나스
ELS
비장
하룻밤
전문직
##쓸이
침실
선례
떨린다
함대
챌린지
##리학
회개
찍힌
##래미
속한다
레시
아바타
특전
다이소
구르
알라
투신
650
강타
학자금
울진
무혐
채웠
싹쓸이
재기
유화
계실
월스트리트
영업자
몸값
##차림
드러날
아구
안타까움
박준
입다물
파스타
껴안
후지
##ome
베드
최민
스와
날까
화순
기탁
토토
떠돌
멧돼지
을껄
블룸버그
놨는데
머금
신의
이권
잡종
회사원
정찰
##무장
짜릿
씌워
두근
속해
##타임
은하
해줘도
파멸
외양
유격
냉각
성수기
고법
쓰레
죄악
빌어먹
바울
##저트
팔자
탁상
후면
파헤치
##SI
여중
스퀘어
세션
내심
한건
주어진다
지낼
센트럴
다분
접어
우르르
##UT
노란색
그랜
경호원
IOC
당해야
MD
##올라
자루
깝치
삼성증권
가든
벌어들
뽐내
##릴라
흔하
양지
망설이
뜯어먹
비워
곳간
니나
섭섭
바닷물
바야
안산시
규율
##들였
##때로
안하
TP
누이
합법화
대나무
슬기
##짜기
##일러
##체스터
외로움
##HD
심기
프렌
고질
상부
브로커
가르쳤
발현
출품
##천하
모친
##어스
대응책
이호
성황
아울렛
닛산
참으
누설
조양
지뢰
석면
줄어든다
이회
원비
얻어
무모
법리
충무
남방
대관
시조
시퍼
태종
걸치
기류
장려금
죗값
표했
화염
냅시다
문주
##ology
아까워
안타까워
마드
PM
저력
두어
화답
혈당
##킨다
토트넘
사령탑
불태
al
입성
현저히
이룬다
그제야
마져
##버섯
210
##포터
반가운
고갈
할부
##기름
알려야
out
수탈
##만장
배설
한약
살려야
177
노려보
급성장
고창
고위험
태반
볼까요
연료전지
스코어
소생
여실히
129
##iss
수양
로구나
박세
샴푸
동두
쓸어버
입장료
제약사
신빙
1974
반출
병원장
헐뜯
##작물
관절염
경질
즐겼
도어
수협
그러니깐
복숭아
1976
역활
차인
데스크
여타
탐지
증축
들어온다
학벌
##청사
개탄스럽
뷔페
환하
사돈
생수
국가원수
문대
구출
##악산
##셔서
쳐묵
진성
지마
##ord
여적죄
리베
진행자
스페이스
유람
장가
강경화
내요
폭주
설날
디저트
지켜볼
가습기
태연
요렇게
York
심부름
산모
엄두
동두천
##ind
해저
얼리
##차근
여관
합쳐서
##ech
까스
참관
PP
차근차근
몬스터
다가온
삽니다
험한
지으
사춘
뛰쳐
퇴치
만회
온난
흩어져
달할
렌트
끝난다
##부리
강했
암기
유은혜
이간질
내로
귀가
체코
##글라스
도로공사
쌍판
##맞이
정현
창간
저따위
흘린
효소
두드러
서대문
##라이언
드럼
암만
그칠
의기
그리움
이상황
모하
였음
착륙
펜스
가출
제인
국회법
##버둥
부치
##방위
##구만
##머님
족발
##투사
손대
##일치
Be
택한
여진
몸소
부산항
목구멍
날린
오리지널
pr
폐수
개업
징역형
구동
맛없
은메달
KE
노가
아이언
내셔널
던가요
드신
칼로리
쓴다는
물러났
OK
졸려
희안
보스턴
재화
난동
배당금
송환
쫄리
다더라
청나라
쥐어
받쳐
채울
중남
경의
어우러진
담아
기왕
최진
교량
TO
페미니스트
고귀
승승
발버둥
외과
##레마
##텍스
숙련
흥청
포위
##루스
분장
##손손
사본
짤리
나사
쓰였
돌이켜
장만
피땀
오지마
통틀
범하
유역
불우
586
장대
고안
깽판
동메달
178
이점
관광공사
데이터베이스
가솔린
보정
승려
아쿠
트윗
스모
##암동
이루어져야
단거리
윤상
ML
BB
끝냈
Wh
찬물
터전
##초리
무색
신민
잔머리
##택시
태그
당직
리우
1977
사계
내준
##남기
##ish
슈퍼마켓
156
##ree
리치
장구
기이
문란
리라는
답사
정연
괜차
재택근무
남원
블리
이체
김효
KAIST
살렸
거룩
청바지
이국종
열렬
야이
징벌
정회
억대
연전
농수산물
나온다는
이선
현물
오물
##pe
1972
아모레
박기
실크
거래처
잔다
예비군
여객선
애교
바글
세리
옄ㅋㅋ
거래법
속마음
음모론
징그럽
피드백
오키나와
왔었
##ah
##받이
그친
로라
##터카
들판
월화
무급
전통문화
렌터카
##au
##덩어리
로맨틱
이한
신대
실익
집무실
얻어먹
##15
자긍
320
차갑
##ance
##act
아랑곳
카피
특목고
허세
누명
기자재
견지
자연히
판명
마드리
계수
울부짖
접경
돌파구
아자
도사
영덕
결핵
사병
돌려보내
동대
짝사랑
달아나
망나니
##검사
독교
평판
박주영
건조기
국판
요양원
요시
필라
cctv
중생
김의
쇠퇴
기형
스케이팅
전망대
II
기정
고칠
쯔쯔
전기료
##무가내
면죄부
김도
선거전
매기
적십자
자막
##수범
막무가내
울릉도
자석
구마
넘버
목욕탕
변혁
포즈
갖춰야
고른
반정부
##덱스
네일
봉화
여성부
옥션
팀원
계획안
법치주의
그깟
##AC
##yst
죄수
Man
발톱
에세이
암흑
해커
미제
탐험
자산관리
허덕
배불리
문화원
136
말미암
분간
마드리드
리츠
뮤지션
ac
태산
철없
생명력
메우
할애
누른
염소
한데요
대미
개도국
숙원
##페이스
들썩
명장
앵벌이
유부
봉준호
묵인
분탕
면치
이춘
누비
기내
환전
충실하
이러다
상세히
슬림
끼친
저택
단언
##그네
##벌리
##ock
##그머니
꽁꽁
동족
##환자
토요
승승장구
기본소득
중앙지
위증
사춘기
진위
미시
향유
졌으면
알아내
올라섰
천안시
처맞
해부
고마워요
트러
싸질러
드나들
온상
EC
티나
석고
자긍심
복선
냄새나
주총
광저우
서거
빼앗기
글쎄요
가디
견본
##사항
이청
전보
냉철
##무인
역겨워
답글
##노소
포켓
브로드
##뿌리
토너
멈췄
한다니까
집약
182
잠식
마사오
고품질
사리사
##ank
다이빙
imf
안착
BBC
광해
허나
상납
항생
판소리
획기적으로
평온
태어날
내구
##용수
##12
자숙
앞당겨
준표
쫓아내
리처
깜깜
주교
열중
쪽팔린다
유언비어
조건부
선후
맛볼
캐시
로즈
이천
활개
교란
##aw
강철
불거지
촉각
##ign
땅콩
명나라
장원
##보증
송치
롯데월드
줄기세포
바라볼
우루
제게
##미디어
신형
제물
1948
##ick
어조
잡음
은평
전량
무제한
코믹
진수
성품
떠안
백억
뺑소니
##드레
정신줄
오션
까다로운
퇴행
개박
탄산
끊기
파이터
보유자
담담
오락가락
혼내
##중기
##창기
청라
경복
광물
라떼
TH
의결권
##잖아요
별표
##ire
감세
##ath
리포트
갖가지
맞춤법
단죄
##교도
밀레
맘껏
프린트
다릅니다
137
운전기사
##크라테스
간다면
딴지
고국
동이
중앙선
농경
SO
기어나
북적
그쳐
청년층
화분
생겨났
살길
엊그
139
##광역시
삼키
부검
김부겸
안하무인
완도
거장
심경
힘차
생태계
밥값
##야마
방황
트로트
시니어
KS
치워라
얔ㅋㅋ
일몰
##ive
사파
전파자
##나가
플래시
고공
개보
변이
독단
멜로
리자
수출액
호국
목걸이
연행
##나타
청담
Mar
진핑
박탈감
##다운
153
파헤쳐
초음
부담감
우승자
숙주
##지엄
작태
천명
화물차
스텔
팔레스
심포지엄
감춰
동인
이질
박찬호
내과
모태
마중
밤중
짘ㅋㅋ
프린터
관직
##ide
그죠
뚱뚱
빅토
갔다온
거주지
부득이
뉘우
##케이
내성
부딪히
나와요
포르노
Tr
아메리
한일
수화
국교
비상사태
엑소
고루
파이낸
상여금
쿠키
단교
갈리
져도
이제껏
수하
추진력
패소
알고리즘
마음가짐
문지
전할
경제학자
이찬
##듀서
가성
서한
프로듀서
이뤄져
사리사욕
가재
##정지
관사
스트레
차체
책자
##승부
들여서
터트리
##차별
아키
##둬라
급진
원도
##부인과
유방암
획일
기다린다
산부인과
볼게요
금기
원한다면
중얼거렸
세인트
치하
질려
반말
에티
설계사
솔선수범
무서웠
미르
쳐들어
나뉜다
청송
통할
152
망정
1968
가열
포상금
신명
야마
초안
멸치
근린
집합소
최전
급속도
드로
남녀노소
찍히
레몬
애널리스트
찬란
첩보
##sh
어림
마흔
이법
일터
일축
##ert
신사업
괴리
홍남기
빼돌리
색소
성북
식용
씨티
선지
제제
조윤
도다
원재
달러화
타파
콤플렉스
사이언스
##혜진
때때로
예시
배반
전관
##나갔
깔깔
##리다
정사
맞은
나쁨
커튼
테크놀
얽힌
덮어
엇다
경량
미스트
le
가져갔
조광
##시티
갈망
it
##자락
팔레스타인
메세지
배짱
피부과
소도
##력자
벌인다
드려요
형수
사기극
##모토
##부동
베일
with
버금
AD
여드름
중량
스테이크
고강
위례
앞세우
##AP
제갈
먼데
식기
##상수
사체
다녀와
이얌
노점
청자
교섭단체
패드
##사전
장안
지켜본
찾아다니
겁박
살펴본
난관
무기고
모을
멀리서
스미스
준대
##박질
134
##드립니다
초창기
##퉁이
달해
심플
열폭
딜러
의석수
함박
통한다
밀어내
마틴
홈경기
##징계
##인물
김영란
폭언
연연
기어들
실직
##은색
##상가
끓이
주거지
전주시
했을까
연장선
나간다는
##ㅇㅋ
선처
이따가
##백화점
출산율
##이어
시들
나지
시합
구애
외주
이중인
멈춘
방심
지껄여
재조사
##지처
유배
밀수
Univers
안마
지른
스릴
맞은편
크다
획정
순종
해독
게을
세관
##벼락
간략
성직자
케이블카
su
빡빡
##젠테이션
수녀
법조인
모티브
Bl
야죠
비주얼
젠더
##gr
Gr
날로
피했
##ma
떠올렸
나인
잡아내
카테고리
빗물
##가동
보여요
어면
더해
기준치
일부분
술부
으뜸
초교
잔잔
완성도
불기
##ove
##킵시다
어두워
가부장
니께
쏘나타
돌아온다
근래
바이올린
그땐
두피
무도
갔다왔
원재료
택트
KD
하단
로펌
전속
크리
##한국
덤벼
돌발
우선시
NG
청결
맞선
마일리
사역
회의장
굽히
리바운드
경진
느슨
혼수
간신배
서인
딸래미
자락
정인
회차
##훼손
미운
수락
전셋
강판
정석
어수
깨물
미녀
튀김
세워진
나약
든다고
##블리
휴무
Se
용적
돌려서
적군
김석
발가락
##ㅡㅡ
ID
일손
개진
하류
##are
항문
데요
강령
벌칙
재용
면책
울림
##거든
갔다오
대공
선입
AM
정은이
붙여서
앞세운
RO
딸리
##도르
프로이트
별일
판결문
선천
샤오미
TE
뇌졸
체크카드
Joh
빵빵
믿기
선구
다져
복리
BN
하아
풍토
다른데
국화
##vel
경멸
연락처
지녔
낱낱이
간행
악성
똥칠
GP
숭고
합친
김해시
부도덕
창녕
저당
판촉
##천구
클리닉
직거래
죽여라
자괴
바랐
려는데
빈민
때론
별반
##레스테
명예훼손
관공서
불나
의례
커진다
겨루
너스
싸늘
기막
1971
여운
부린
커넥
극소수
##14
수치심
외지
커리
대청
방수
분홍
어울린다
빈틈
책임져라
제비
뾰족
OUT
쓰인다
##무라
##야구
키워야
끄덕이
들키
난독
바바
박모
아찔
시요
방정
정동영
##라비아
연정
전문대
웨스트
불러야
선풍기
말문
로군
##포츠
나이스
172
레스
아토피
피임
연달
였으니
예절
##중국
031
AC
경인선
군정
제반
##죽이
배낭
흔들림
아다가
잠복기
라마
컨설턴트
퍼줄
리처드
갈려고
막혔
간염
위쪽
Ph
공상
손아
원소
처했
통폐
비서실
예리
참고인
내려갈
철원
뜬금없이
니콜
콜롬
중앙당
밀어붙
##방망이
트로피
볼려고
일사
탁구
도리어
부지런히
교제
맨체스터
파시즘
상법
퍼진
기억력
힐러리
예정자
부조리
따라다니
자빠져
현충원
파출소
내사
아멘
깨졌
가자
웍스
몸담
모질
매듭
사우디아
거느리
욕실
받치
효용
초빙
신항
다냐
장동
코코
고뇌
하부
인사말
수혜자
카르텔
숙성
낮췄
강박
변제
불이
적격
도려
남학생
산책로
빌린
촘촘
204
162
##ystem
못지
투약
선거인
민영
감형
즉위
김종민
과속
품안
미끼
##가정
가파른
퉤퉤
##나도
항생제
훔친
목줄
교차로
트랜스
으이그
구강
얽매
우버
##영수
방문자
가도
암것도
바빴
해놨
장타
콜레스테
웃돌
적나라
평택시
##민호
소송법
처리장
손잡이
유치원생
불고기
치러야
Ad
##부족
나타낸다
지울
십쇼
잡아들
양재
부양책
##건건
##인공
내시경
로이터
골절
레시피
콜레스테롤
운전사
담그
앞쪽
기저귀
김보
들끓
파울
##혜선
잠겨
변인
탄다
고쳐야
파국
no
분사
사사건건
여행가
체불
불릴
엇갈리
CT
감소세
엊그제
법사
일식집
농작물
수뇌부
GE
중남미
캐피탈
인분
후생
연신
제작자
총파
위아
마일리지
던질
164
까다롭
난국
튀어나오
낮잠
아슬
치른다
개의
##커트
영탁
단련
법무법인
IBK
함성
다라
EP
가야지
똥구멍
정파
전반기
배열
윤종
납세자
헷갈리
횃불
실과
pc
##재해
제철소
손색
조급
##제당
장년층
도깨비
선하
한다더니
낰ㅋㅋ
어울릴
펌프
성년
할머님
괜한
간만
##소송
계양
총파업
##감정
늘려야
덤비
149
삽시다
청하
늦춰
부상자
저변
후방
통폐합
망해도
다문화
##특기
위스키
방제
마카
청주시
##효과
구미시
딜레마
꿰뚫
구독자
테두리
제일제당
관청
위자
물의
반동
영암
##체육
시험장
할려는
경륜
혓바닥
흐뭇
얽혀
내야
550
주특기
경미
부쩍
자연재해
인디언
성악
칼슘
독제
자라나
노가다
##산성
첼시
토의
속인
요즈음
구명
소이다
면도
노랑
모함
성수
사우디아라비아
176
승패
전라남도
평형
한게
지도층
거취
하이트
안양시
드셔
찢어지
끝낸
##고집
도면
선글라스
왔으며
피아니스트
화백
몰랐다
피라미
소재지
예스
##배상
여쭤
건너편
##도록
아메리칸
경상북도
거물
정태
불쑥
총량
흐려
##날드
슬그머니
개구
중성
163
컨퍼런스
확연히
자괴감
자판
143
거역
버드
그럴듯
떠서
이근
개년
사기업
유산균
발맞
메이드
박형
##니스탄
대모
못생긴
재팬
정청
구세
브렉
걸려도
서경
##러움
한걸
어설픈
수천억
건국대
방사성
진즉
대내외
서글
으루
한기총
절충
더미
만능
고추장
##공업
의향
레임
147
내건
힘겹
표류
에버랜드
어우러져
계룡
배타
선인
축산물
아이파크
##ous
무지하
득표율
하기야
소급
대물
원합니다
후후
내쫓
로컬
168
대들
신다고
수도권
꿈틀
KL
술잔
교육장
된대
몸집
##유국
추기
청계천
me
차액
##렉트
##베리아
##학년
지지부진
웬일
유분
만한
유로존
김광현
##천리
브레
한성
IPTV
원두
레임덕
부안
비약
마우스
알린
핸들
꾸민
에디션
가덕
식욕
##갈비
난이도
암세포
채찍
사고력
##구정
신경전
기념사업
거니와
임상시험
주심
##노동
간대
떠오른다
천상
##마르
땡기
142
보험업
백혈
쑥대
스트리
카니
지만은
아낌
미스터리
제스
##ase
놀려
크리에
모의고사
강탈
속상하
떠밀
끼칠
워커
취항
146
머슴
반등
사슴
공탁
##뱅이
복싱
실례
가로수
코스트
시늉
국문
발뺌
안전성
외계인
선양
회부
##하다
##old
걸요
이성윤
그랑
개동
성태
##바구니
역도
워라
전과자
낮춘
희소
호출
첫해
엄격히
피켓
간디
청화
수배
김기춘
##자부
조인
부가세
##봐도
모비스
반짝이
스케일
##천동
다다
실드
정녕
빠짐없이
스마
석학
주선
##io
아이유
##자루
매립지
꺼려
구더기
투자가
이율
개점
어려운데
전라북도
고단
탈환
##병제
미동
성화
무전
원년
##하라
어긴
열거
##con
유리창
겸비
혼동
ㅇㅋㅇㅋ
숱한
끼친다
138
아쉬워
부렸
코리안
느닷
담뱃
박명
수교
주의보
프랭
비선
다케
사들이
생겨난
하우
디바
서북
한경
##맹이
뒤처
##행정
업무상
무실점
교시
얼만데
술자리
자명
권위주의
단의
들려오
무이자
외세
이당
##tr
최대치
버스터
토벌
무의
서강대
장세
배심
부딪치
오랑캐
방자
쓰러졌
158
감내
깽깽
구정
입김
동당
조형물
뎅이
자가용
새겨진
참견
수모
야야
원사
시킨다고
##절절
놓쳤
##CO
IR
임대인
차이나
회기
##금융
##호흡
펀딩
제작비
편중
##씌우
발전기
스치
구구절절
이연
##오카
모여들
##ina
위급
카더라
압구정
현대건설
빨치산
덧붙여
태자
##쿠버
필두
잇단
148
개차
스위치
고취
곡성
언뜻
데기
잡힐
적립금
암컷
##11
취임식
연기력
소각장
진료비
본보
##터스
##호식
사적
등록증
펼쳐졌
공생
됐으니
산후
없앨
MW
무릅
한다든지
at
어유
두터
가나
석상
음흉
노자
문화예술
1969
증빙
앙앙
초연
##af
육갑
애새끼
한다는데
소년법
소리치
평가전
바빠서
FDA
괴롭힘
가늘
피시
멜론
안간
스킬
자만
차주
이재정
MM
벙커
기틀
휴먼
크레인
메타
태조
장신
액정
한문
고의로
뒤섞
잘생긴
비지
갑상
교통망
즐비
오월
생식
뱃지
이긴다
오거돈
눈부신
클렌
Korea
쟁취
점잖
브레인
결속
청양
쓰일
다졌
조희
증발
##간첩
아반
선체
회유
##돋움
모터스
떠난다
절실히
여혐
발돋움
아날
낙원
할껄
카스
un
전립
난항
발짝
어니
날카롭
형편없
밀린
초석
커리어
밝혀질
궁궐
접점
왕래
##RT
##17
공급자
모건
효도
저탄
따내
케인
국립대
he
내리막
하계
##바퀴
##선거
김소
메커
불감
동강
받아들인
이계
헤라
틀어막
신병
배불
체인지
가옥
곰팡이
은커녕
직행
밀폐
바램
물동
여직
구질
행각
개종
안식
덕목
IPO
박유
양손
뒷모습
직계
성형외과
벗어났
초음파
##민턴
주호영
##트랙
en
퍼다
개명
화난다
항명
민간단체
콩나물
폴리스
황폐
##공항공사
##mun
두말
사부
키가
해용
등쳐
교만
비주
전유
피워
뜨거워
##가요
166
된다며
KDI
SDI
곱창
##망상
존나게
할게
열도
정희
붙일
센티
실거
공손
소견
양치
베개
사은
동양인
##국장
배꼽
이요
실마리
상쾌
흐트
산림청
기보
전도사
문책
첨예
플라이
김신
송중기
발바닥
##int
415
낸다고
헤르
개떡
전멸
게임즈
다문화가정
라나
테라스
즐거워
오메
자갈
베토
##매장
휴가철
대유행
##CI
숨길
옷차림
극성
학술지
낙제
색이
핏줄
기우
박동
##ition
낙엽
지망
머뭇
낭독
지양
Br
악행
놓이
침뱉
##둥절
들릴
지만원
손해배상
쓰러진
뇌졸중
팬츠
##누르
##일드
세세
요리사
나폴레
출사
느린
꼭지
호의호식
두르
으니라고
입장권
어리둥절
메커니즘
대머리
엣지
##13
이래저래
##은희
재끼
##아주
캐리
한국사
넥타이
##대원
##취업
사뭇
실지
명언
최강욱
##틀랜드
공언
수괴
엔딩
흘러나오
부탁드립니다
##올리
여지껏
공교
엘리자
주어
##프스
##쿠스
부지사
다량
코카
파트너십
순리
초중
풀릴
##그마
긴축
은은
팔꿈치
비나
진공
왕후
입법부
공적
추해
난다는
##혁명
뛰어든
엔트리
스틱
명실상부
수컷
빠진다
치러진
무주택자
안간힘
특단
연습장
달려갔
플로리다
계장
육수
국부
1940
##탱크
요하
산화
연주회
밸런스
신아
천연가스
워너
콘퍼런스
선동이
##16
속임
##son
돌봐
1967
개회
훤히
영양소
플라자
러시
페인트
녹조
열심
카운트
귀순
아앙
생가
##검찰청
지폐
##ㅜㅜ
마오
장지
울주군
University
놓친
##erv
DG
BI
설훈
근무자
패전
당직자
발원지
들렀
가상현실
IBM
대검찰청
KG
##캐피탈
바라기
핍박
1963
뜬다
저울
##rom
사로잡혀
무어
뭉쳐서
카자
처박
##충제
현대사
개비
누진
플리
##깁니다
배상금
김규
고이
아리스
포스코건설
쪽팔려서
까대
오스
WS
미덕
황태
순교
단면
배드민턴
궁지
##ann
단체전
초토화
텅텅
##틀리
메트로
##19
골짜기
성관
##오줌
극동
MBA
일용직
좋아할
정용
스탈린
눈알
지그
쓰다듬
저수지
인신공격
서랍
아테네
나올지
동일시
꾸짖
이용수
내놔라
곰곰
금정
전셋값
정미
CI
참된
그려진
어워드
오보
흐른
정글
사극
일궈
동갑
영생
보인다는
앞길
듀얼
그리구
아인슈타인
테크놀로지
딸랑
Soc
패망
벽면
쌓았
우여
장어
##설수
##철호
시커
푸르지오
분향
##BI
장흥
##주부
빠뜨리
퇴보
웅장
##tiv
GTX
발렌
산골
양궁
##클리
수족
시황
과오
##분명
어쩌다가
역사관
위약
##에미
편승
##ME
다원
모터쇼
강서
산적
에이전
660
나폴레옹
파묻
빌보드
국방비
##맞춤
근디
해발
진솔
굵직
음료수
대추
칼리
달력
앙상
외환은행
비빔밥
중환자
문무
써요
편도
현저
개강
어찌하
교화
명세
탄원
늘린
독한
신고자
역부족
측량
수임
박살나
세연
##바르
영유
##게이
행정력
김범
수해
손꼽히
해짐
줄여서
냐며
바스
혼선
역차별
쳐내
##분자
일말
파주시
##창호
관전
김상조
##활약
따스
넘어오
수축
전인
박민
존스
추기경
연합군
거처
수군
서예
저버리
중재자
부가가치세
베토벤
나랏일
합심
박희
본당
Pol
3040
때려치
조르
멤버십
문양
복면
합병증
독과점
##시계
정오
사려
때릴
신격
투데이
독식
냐구요
구약
졸업식
별루
##바위
끼쳤
성토
대낮
장재
주원
개연
자다
갱이
##able
튜브
167
돈다
애썼
파란색
외야
##살렘
급수
처묵
돌아와서
리어
노사정
먹방
아동학
##오드
가히
정운
나타낸
2400
타개
##ations
쫓기
이래라
비벼
고층
순천시
어의
고상
Intern
체벌
무지개
이태리
심성
##이면
가족사
##rans
사회주의자
망해서
도가
국인
##루살렘
프로그래
스텝
듬뿍
경주시
쑤셔
느긋
174
양동
호프
희열
피해야
가소
땡큐
수심
문젠
내공
미신
저성장
동승
##모로
##수단
기념품
결별
고점
##ile
##곡히
진급
불분명
송혜
수변
적중
거쳐서
영양제
애착
내고
버려진
맹활약
##gh
두드러지
괴산
내림
역병
커밍
페리
넘친다
배신감
개짓
서신
스톤
조달청
경전철
##기계
페널티
##소문
##료품
야쿠
##카르
블랙박스
뿐이
인천항
들였
마십시오
가져갈
조연
##곡절
챙겨야
블라디
##수거
현대캐피탈
느껴질
새로이
어시
진자
무승부
카운터
연회
잖니
##ife
헬로
전기세
출격
전월세
플라톤
풀렸
상경
얼렁
##진창
청사진
포도주
토니
코팅
자이언
사익
우측
스트레칭
로직
합참
민병
영진
절묘
유적지
방망이
##OR
##tit
월성
동그
손짓
엉망진창
합하
과학부
사니
알려줘
가벼워
자서전
등본
아집
기웃거리
작사
모국
박자
똥오줌
눈뜨
난도
병장
자구요
생존자
우여곡절
춘추
배현진
CES
동자
라이언
산맥
저탄소
갖출
개고기
받아들여야
나이다
##마나
##모직
송정
제일모직
터져서
애호
대대손손
간결
씨부려
순국
일국
커피숍
열연
기념행사
인내심
장정
갑작스럽
리가
제격
트윈
간경
기자단
추접
##아내리
구타
돈독
도표
독수리
겸허
승화
여종
참회
멀티미디어
프라임
코딩
##해하
복부
레닌
공사장
강의실
##다녔
##두고
훈계
##pl
##프로
한바탕
한가요
파열
학교장
##바글
NLL
좋아한다
끝낼
원통
살림살이
기울여야
꽃길
닠ㅋㅋ
루스
Or
독해
아래쪽
기간제
로그인
꼬시
입가
적이
##부수
다퉈
공정성
큐브
주휴
다면서요
학파
##장치
담양
벗기
점퍼
달라서
##ph
느니라
도도
여러모로
쳐드
까페
끼니
무임
경영인
돌이킬
교토
1962
시안
번번
으로선
바란
송혜교
프로필
편할
##누스
수기
행한
##밸리
호주머니
미움
##게이션
내비게이션
널렸
Res
외로운
시원찮
성벽
세간
DC
산청
두드러기
뽑혔
사대주의
참혹
선언문
멈출
시즈
외할
##누리
##봉주
니체
울분
##언정
##쿠르
강단
개콘
중력
시간대
가용
봉기
바글바글
낸다는
정읍
일기장
이회창
마피아
MP
자장
둥근
유망주
어수선
격투
사슬
잖어
##렁거리
한일전
##anc
우즈베
램프
만진
칠곡
장영
Me
모로
장학생
남길
Ac
낮출
월급쟁이
피라미드
들락
탄식
채식
예루살렘
좌천
전세기
카자흐
옆구리
중독자
초소
##젤레스
반고
##착오
문제없
구린내
음란물
따윈
충견
소치
학군
순경
##미사
자활
말끔
허다
##ite
위크
##수무
버금가
브래
빠를
나위
뮌헨
분리수거
빠져들
거동
으으
리튬
삐뚤
롤러
##깅스
이중성
지주사
##ime
애꿎
천정
미러
나바
찜질
시행착오
총격
자본가
부설
분개
변동성
##구치
기라
VS
하지
향해서
태화
해적
갑작스런
모진
중징계
포고
환경영향
환경영향평가
레깅스
세차
삭스
한림
악어
##ade
다쳐
무술
살상
마사회
비엔날레
똥통
평화상
유재수
World
##무시
##둘기
슬리
볼륨
##갔다
안가
태클
##산동
어찌나
혜원
균등
버려서
건넨
장중
귀결
##크림
가다듬
사활
군자
베란다
동맥
얼핏
풀린
선율
토마스
투덜
##악단
대용량
체장
사우스
산업체
서지
고하
매점
공석
##몰이
출입구
속히
궁중
젤리
근력
링컨
아야죠
경리
질수록
사계절
티베트
후원자
정거
##OD
실렸
헛발
목격자
무릅쓰
살폈
울화
패닉
항아리
최태원
##어냈
##시원
##자치단체
개차반
불감증
도화
상큼
일파
노통
##oon
폐막
지역주의
갈릴
초저
꼬락
나돌
산전
허점
##편네
미라
안무
소화기
나자
개인주의
남해안
단도
내뿜
음음
축구장
초상화
##라이나
외양간
궁민
가네
해왔
빛깔
전법
탄성
영월
2200
부르주
##ern
사상자
세치
오크
투스
보온
CGV
디질
식수
악당
강풍
언주
여편네
중임
짜여
익혀
덜떨어진
맥도날드
뜻깊
위자료
인회
반품
우겨
경복궁
##아아
##상식
아프가
저명
제하
한국노총
교통비
배관
후드
빈다
포식
##슬러
##께요
##버리지
박태환
묵직
평년
수역
층간
동동
끌어올렸
지발
친서
흉터
능지처
파이낸셜
##던지
음악가
급부상
백서
문창
일과
뒤바
플란트
통찰력
김호중
박병호
SF
CB
녹취
복식
예비비
봄날
그닥
창가
이혜
치뤄
희망자
소비재
신세계백화점
못합니다
주진우
세척
주치
파르
떠도
##부치
사회관
플루
혼다
발랄
분유
시름
조직원
레일
재취업
천도
##form
울트라
모아야
습도
나이키
터득
연민
실까
정모
##아시아
틀려
버핏
스가
푸짐
지중해
될까봐
1910
물동량
줄여라
전해진다
미역국
현주소
도교
통신비
소용돌이
구지
기로
찌질이
영정
조양호
길목
모세
핑장
가정폭력
미야
네오
걸어야
무궁화
민초
연하
주지사
장도
캡슐
##부대
모성
저널리즘
살균제
반대파
조그마
##지부지
아프가니스탄
##AD
귀띔
산문
##TC
이겨야
흐지부지
도살
아이큐
갈대
옵티
주광
그럴수록
다가와
금상
펼쳐질
사교육비
초원
Gl
찌꺼
대림산업
쟎아
절개
용수
영성
두고
일지라도
변비
능지처참
하급
국제선
칸트
##ton
사은품
문과
쪽팔려
보아
##리그
전자파
소중히
아반떼
학장
솜방망이
가르칠
수력
부적합
##ON
PF
Co
##내미
한수
##화학
낙지
충전기
추앙
빼돌린
오승환
380
통용
사교
리버풀
돌진
동독
군함
발찌
뒤편
매끄
양분
##예금
묵살
다산
##절기
애국가
올까
우우
착안
##서도
밀러
인적
근까
융통
부풀리
킬러
수사대
게나
당함
드니
연구비
프랑크
구토
역주
화풀이
오르내리
요구사항
만족감
재연
떨쳐
두고두고
손씨
한명
왔다갔다
명쾌
몸뚱
사정관
나들이
때우
더러워서
성장기
청취자
##거려
느려
진척
제주항공
인단
정종
부름
까발려
##도전
##튀기
외교통
누출
재협
줄거리
트루
불발
안치
##일비
양준
비주류
곡식
##iti
박인비
수인
통쾌
계약자
캐피
편집자
라운지
티저
출연진
남극
오차
테러리스트
우방국
본명
전립선
낱말
요일
위엄
은유
기발
개당
생업
따님
반열
원성
작단
관세청
레미
김현수
손보
##레일
PS
생계비
매혹
출루
##구장창
담백
노약
숙지
제끼
진하
강정호
전지훈련
나무라
그래야지
부업
##요금
순공
케이티
심이
애잔
자성
주구장창
패러디
솟아
퀄리티
보여줘
남경필
튀기
양육비
허덕이
길가
뻥튀기
터보
이동국
정거장
등쳐먹
고착
차후
갈려
##RS
##제표
배틀
어당
기체
칼라
넷마
즉흥
뽑힌
다매
계량
홈즈
찌꺼기
입혀
달릴
림종
모는
지근
뭉친
이터
지로
기어나오
수목원
답안
무르
당겨
권오
수식어
미디
##속기
변종
재무제표
##어링
항공편
기무사
대학가
##사관
일어섰
##ier
넘어설
##und
##enc
광명시
공실
홍석
특약
통행료
민원인
##미리
욬ㅋㅋ
##ax
##ise
언젠데
넷마블
부호
등장인물
이봐
##리스타
시러
돌아선
안부
무한도전
ar
춘천시
무리수
트러블
부천시
박승
아수
##TT
땡겨
서늘
각급
대등
도봉
원론
항변
구본
힘껏
몰상식
시방
중용
강동구
아날로그
능숙
페트
큰소리치
상판
괜차나
KLPGA
옥순
은닉
변함없
und
으응
##쓴이
배트
169
소비량
인구수
맞섰
박현
무의식
티브
자며
글쓴이
비평가
각질
프레젠테이션
빙상
누웠
컵라면
##기념
공공시설
널려
싱싱
바쳤
죽임
겨누
쪽지
##지심
퍼즐
풍미
풍수
##톡스
설렘
##무늬
독립투사
웨이브
장내
##댕이
가까스로
진실로
1964
촉매
취해서
잡혀가
길바닥
과부
일컬
개기
선주
군기
골격
국방력
빼앗긴
욱일기
취해야
허영
##해전
십상
##광이
수유
001
##앙스
총각
극본
KF
망원경
내분
모노
그른
여겨졌
현충일
시차
##앤젤레스
로스앤젤레스
세계사
욕했
우라늄
위약금
소자
해산물
김시
무턱
Comp
스며들
빙자
연희
##ater
박보
오잉
내세울
능률
Gre
정영
용산구
리틀
주정차
애원
뽀뽀
의과
헌데
놀라움
밸류
선일
거자
구국
잇몸
추징
##질서
재수사
시베리아
친지
상전
SKT
성문
퍼레이드
통관
특공
단발
적재
##셔야
NGO
가파르
유니버
자아내
구부
하다
방지법
얻어맞
매화
허니
노모
우크라
지팡이
제각각
격추
예식
주택가
##ink
173
담아내
너도
순응
기와
캐피털
폄훼
안다는
이범
혼나
마칠
1961
서두
객석
경작
선후배
구차
입힌
후련
##으리
통틀어
꿋꿋
이우
이럼
내미
논설
아실
더럽히
쫓겨나
갈증
##좌파
안겼
##희경
샤넬
여태껏
가할
1946
모차
뽑아내
루터
가했
기약
다님
##케미
##리시
유소년
달성군
녹여
생동
능선
스러우
김포시
극명
팩토리
뉘앙스
원할
해인
##케인
문성
싸인
SE
변한다
빵집
갇힌
김두관
서진
225
남동생
최저치
시다
집어치
거침없이
결탁
타지
우즈베키스탄
뒷면
gr
엄연
떨어진다는
때메
잘나
주안
방귀
##스피
성가
기공
어젯
포석
발포
되돌아보
페루
경화
노역
피로감
sec
등용
쾌감
사문서
개각
쿠션
배부른
래미안
어젯밤
목돈
실생활
몹쓸
7500
까치
이스타
최승
##진짜
##런지
아쉬웠
학번
볼수록
목표치
국자
라오스
CIA
될수록
말소
사발
일절
여길
계망
활보
감량
소총
관리인
나뭇가지
놀아
팬클럽
달라요
##ey
달서구
변절
아디
특권층
루시
백업
홍명
천성
발끝
로이
만장일치
밀렸
졸속
문세
연기금
승선
까마귀
윤성
죽인다
치이
가만있
예천
콩쿠르
구한말
일인
##난방
반죽
경쾌
영공
케익
좁히
실리콘밸리
현정
정청래
##문화재
진원지
노동계
면허증
입출
지아
깨져도
##하우스
미래한국
유람선
유년
간통
때려라
라미
소유주
점쳐
ad
발화
출입문
날아오
놓였
1966
보위
하프
디오
비둘기
서독
무서움
지점장
타다
라이온
식료품
으란
대치동
달랑
별것
자지
##우트
맴돌
병무
가압
대군
똥고집
면밀
춘향
포커스
대생
워크아웃
정우성
비무장
##리나
정병
나트
무림
초계
김영철
뿌렸
석기
에여
함축
##강도
좋아했
드실
어허
어때서
프리랜
본심
빡세
함수
##to
##레이트
모야
물러난
##케미칼
##우회
격화
칼국수
관망
##체류
동해안
단양
희석
기록관
어법
절호
리뉴
돌려보
슈퍼스타
살래
구가
서훈
고야
신청인
까이
운하
쾌거
가가
구급차
보디
LIG
대웅
스톡
테타
꼬이
내통
빨갛
영지
뜯어내
윤기
조직력
불법체류
무시무시
만사
쪼끔
마왕
추계
##기능
애용
슈즈
소린지
CU
For
제니
시네마
중소기업청
득세
주물
질리
동종
양현석
호투
##슬쩍
조준
여하튼
논할
고온
##어드
스트리밍
도난
##종양
제안서
속임수
분출
소량
그치만
위정
정상급
가로등
징조
격하
족보
##토스
쌀값
신중히
항암제
통통
연평해전
징징거리
속일
쏠린다
콜로
흉악범
스코틀랜드
군위
예탁
이랜드
인승
##토피아
드러낸다
작업장
선입견
몸싸움
피폭
John
하곤
광고주
미쳐서
잔고
교구
지긋지긋하
외친
좌측
주광덕
종영
정신없이
##제리
수선
##통제
마블
미치광이
못살
살아오
디아
느닷없이
파편
회의록
기말
조목
타구
##슬리
프롤
꿀꺽
증기
코노
파랑
귀촌
##선언
냉방
말썽
##거름
가이
거만
협찬
돌출
먹칠
나아질
순직
영국인
성리학
분탕질
강기정
##밴드
골문
베타
가여
고프
어묵
남양주시
내국인
성의
김명수
관서
펀치
애서
##에나
독서실
원자로
노련
만도
팩스
근사
왜국
래퍼
원희
탄광
정치학
강남역
물어본
섬뜩
복당
##meric
드레
그럽
쩔쩔
신가요
헤엄
추출물
##ans
육류
##거진
시끄러운
높여야
말자
##꺼풀
구시대
외투
건보
뼛속
고혈
애당초
이씨
멜로디
폐허
사과문
육신
내려다
태권도
지나갈
원더
조미
그러다가
경부고속도로
기행
##송이
행실
다나
열세
하층
쭈욱
5500
오송
찔끔
고군
경심
편차
##못해
요미
보듬
해군기지
1919
모유
아득
##eth
사업소
준우
일깨워
모차르트
지어
##식물
다느니
언젠간
한다구
도비
백조
##ene
김수현
세워서
##승차
쏘아
종용
여과
##대사
정치색
##픕니다
역력
기독교인
구금
구내
시마
홀대
다가갔
카자흐스탄
투표소
전집
안장
황토
어중
위암
뇌종양
하자
프리랜서
하버드대
상충
움직인다
##라구
비상시
저래도
##날리
스위트
목장
가르친
번호판
극악
활주
소비세
화소
나니
순순
##ai
강원랜드
340
금성
애견
이따금
일그러
역경
요코
계산서
##렁크
천둥
카를
사우나
찍혀
닭고기
항거
시외
필승
재협상
치웠
막아내
어설프
박은
열대
무정부
봄철
찾아간
전임자
찍혔
식감
비어
지열
호반
치사율
아리스토
트렁크
일색
포섭
NE
구혜선
사색
싸워서
환한
독소
문진
로보
편식
이과
막가
통운
##당당
터무니없
살만
Ind
콜롬비아
포교
상업시설
막힐
엘라
##pr
##세데스
조계종
아네
정예
메르세데스
내려졌
소심
유모차
고삐
연필
다네요
잠든
정확도
배고픈
애리
화약
일본식
순전히
##바라
박대
맞닿
마린
바기
열병
QR
올지
TEU
물기
유골
##위성
애틋
갑상선
버럭
##어티
공습
험난
##적거리
어떨지
모레
말린
부글
내딛
난폭
원리금
다스려야
습기
세출
수줍
##생각
아니한다
##ake
시발점
시민운동
미네랄
별세
팔릴
한족
가점
불린
홍천
두각
소크라테스
경실
키는
##che
그랜저
갈취
빽빽
중도금
풀어놓
심할
일면
커브
##계약
롯데호텔
갈아엎
만천하
해이
황우
쫒아
사무처
WSJ
모사
블라인
포획
절규
원어
탄수
가신
광학
무자비
본전
권리금
You
캄캄
무거워
케네
##장수
##라노
하의
요컨대
렌탈
완만
##실록
사행
왕세
빈자리
김태호
으흠
발각
지닌다
얍삽
카니발
황홀
나쁠
한선
옵티머스
일구
과소
또렷
적시타
##25
멍하니
중전
스테이
##ㄱㅋㄱㅋ
전학
해야겠
높인다
심폐
지은
##iew
그러면은
여대생
두통
연립
숨긴
Americ
탤런트
tr
으르
##거스
쌀쌀
그리스도교
서약
는걸
소사
연골
발단
임태
확고히
게요
커트
통치자
##이야
Par
pl
본체
영조
##이스터
출연료
다목
껴서
처치
무의미
##게티
가창
##결승
가리킨다
뒹굴
포대
민요
고정간첩
신년사
석권
자산가
##아슬
과학고
총사퇴
을려면
잭슨
ㅇㅂ
팔상
하리
돌아다녀
어그
##버릴
철근
패했
괴로움
도축
종래
체증
##팽이
##블러
아슬아슬
평민
생활고
망쳤
김순
##ner
싱어
쪼금
검단
성신
##봅시다
CM
양구
방증
##보레
대작
망고
잡아당
다진
숙였
틈틈
##75
##길동
상체
화병
북아
전생
차차
축물
기냥
해다
희박
남인
찬탈
노부
수개월
곤혹
단번에
둥글
지탄
아로
고압
##나르
##딱지
신호탄
안상수
##led
강지
화천
##상승
내려간
본분
정호
##태평
진가
건져
맞먹
박한
판세
월등히
수서
찝찝
들으니
응대
재조
마카오
봉합
##AN
무작위
패트
동떨어진
분발
이롭
GR
겠다는
물어봐라
다섯째
쇼트트랙
예치
추태
의왕시
난장판
아들딸
거머쥐
납작
##구질
Car
볼턴
방호복
호적
망령
은수
aid
##간이
다가온다
도전장
재능기부
윤영
집들이
대학원생
##불이
세용
##카스
청구인
문수
오정
뚫리
런지
허우
조여
차용
모공
2024
값싼
유자
후베이
방범
러지
해충
범죄인
방재
약혼
행군
##떨어지
식생활
윗대
차입금
신물
중금속
2300
잠그
덜덜
듀오
누님
움츠
표지판
Im
##지물
##좌왕
파파
##답니다
진격
팬데
노렸
웃도
악물
반년
강효
##더니즘
부풀려
우왕좌왕
미관
황해
##두렁
넘나들
도의
금회
욕한
천민
ABC
주소지
경치
접견
공문서
고물
출사표
보잉
##심장
우찌
##봉사
빈곤층
정기예금
경차
##레인지
경시
광진구
##전쟁
눈가
시달렸
받아쓰
발하
##차기
이주민
괘씸
발제
##중독
아무데
블라인드
강간범
하이라이트
물정
완벽히
알콜
기록부
자요
수도원
옹기
##살개
논산
벌거
에로
수학여행
씁니다
후작
구심
부릅
##대고
##엄마
리니지
난데
꼬락서니
친족
신호등
발맞춰
##ound
커넥션
실외
주군
뒤돌아
욕보이
군비
##치아
이변
접어든
새빨
이겨낼
그기
면하
업보
일장
이타
사상가
꺼낸
얼빠진
앞장섰
뒤흔들
꽃뱀
도용
원문
##ys
만류
명료
애시
교통수단
그럴싸
과업
비염
방법론
라니깐
체격
화기
제멋대로
고덕
노마
바칠
##오른
여고생
허망
##린내
SPC
기해
대당
골통
부관
플래그
바흐
청동
마리나
Col
약소
슬퍼하
생각났
박선
부화
시초
문치
lg
##텔레스
고를
미추
##푸스
급선
자상
풍습
인수위
옥천
기네스
오름세
잉크
방청
신협
캐리어
해리스
선거인단
##IM
♥♥
갈라지
하기사
내민
물꼬
현대그룹
큽니다
유추
싹싹
파마
운전대
포구
트림
탄수화물
길들이
이남
횟집
기묘
값진
전우
가망
동유럽
정수장
케네디
게이츠
##조치
부연
아닐지
참모총장
리프
젓가락
시청료
불거졌
총대
역삼
정몽준
형부
##대식
동시대
중개업
펴낸
태운
딸아이
라벨
아리스토텔레스
어울림
조현아
게르
##iet
전자책
게을리
신상품
문고
헤아리
놀랬
저점
거인
에바
##ron
여객기
LP
비자금
삽살개
##제국
버틴
속죄
최형
계상
힘주
문맥
산거
돈줄
거른다
구질구질
무임승차
조오
인계
NYT
직선제
나감
섣불리
악덕
백혈병
숲길
맹신
삼류
예사
기본급
그제서야
##부지
질소
돌아다녔
재범
원초
유격수
떨치
성우
뭉클
해했
괴로워
플레이스
다가서
단조
이용료
순순히
피치
꼬붕
돌변
죄목
승낙
식상
작별
조또
선적
카페인
사옵니다
##지휘
##ower
데려와
물색
##래요
부조
화훼
서현
ne
여서는
AF
6500
삼성생명
마구잡이
##ox
##ital
학기제
손모
쿠르
화고
영아
재경
호두
동태
홀리
로프
만년
깔린
긴밀히
여비
출근길
존립
뚝딱
MBN
서태
힘듭니다
##바른
이즈
주중
볼보
사조
양방
##노릇
중등
지크
메탈
des
냨ㅋㅋ
##덕지
완결
베이커
이발
사납
일거리
난처
루프
선대위
미셸
##nal
정승
안이
##분투
리얼리즘
근현
승복
하등
변증
뒷배
지선
굴러가
미진
인덱스
콧물
전환점
EV
해봐도
분향소
고약
방점
조식
측은
끼얹
사생
구례
냉소
et
##매도
져요
스트리트
포레
가격대
갑갑
유심히
스케치
얄팍
문화부
스팀
걸쳐서
살아날
경계선
수의
헤어진
봉하
밑거름
소령
올드
시화
따돌리
##45
주창
몰려오
성난
절절
##yn
빨리빨리
영통
충신
따라갈
바꾼다
초당
한적
봣는데
직감
다잖아
양정철
순대
타로
##les
sid
##코니
병기
소정
지반
제청
피츠
##명령
승부수
너도나도
연유
위아래
비친
일병
정령
##이상
기정사실
클렌징
사하
호통
남대문
포탈
이청용
##ution
잡초
어루
참내
석가
수문
선거제
##께끼
수수께끼
김양
신예
걸어갔
그래그래
휩싸였
그자
가려서
유휴
경실련
뒤따라
문학사
##갈기
청구서
이방인
1953
##오래
몽고
불식
뽑히
개요
맞불
NHN
몰릴
##처리
##마차
무가
으십니다
친선
교부금
까만
야징
이판
황소
290
거렸
##갑시다
이해력
홍문
번번이
##불명
애완견
극일
누수
도수
##ati
찾아냈
자임
아싸
얼릉
창호
SH
사케
액티브
간만에
ICBM
그려져
네거
##코스
푼돈
오인
형광
재력
패기
황희
윈도우
회비
레이싱
##tical
건재
놓칠
쫓아가
떨어짐
쥐어짜
On
주변인
산길
인지라
전시실
예언자
투병
최하위
불기소
봉인
성패
혹여
As
진나라
개발비
다뤘
맞춰야
##조각
움켜쥐
UHD
열전
부귀
심근
도망갈
블랙홀
사놓
이드
알려준다
반세기
개항
섹션
송가
울컥
똥파리
멱살
활주로
송강
축전
Sm
달구
어떻하
망가뜨리
막혀서
거버
함안
##ail
##의지
수혈
재가동
##보호
##IE
북한산
상대편
펼쳐져
민의
담회
단수
체형
유명세
늘려서
야망
하체
해악
차상
내진
로망
출연금
그랴
제원
평행
화난
지배력
인피
크크
튀어나온
준결승
본업
나날이
명인
전정
면면
목선
액화
##팔트
해봐야
화신
의외로
길들여
이형
우주선
연석
정열
##매기
##지리아
나이지리아
통했
폭설
거림
영호
##사기
방송법
선아
##선미
페이퍼
강등
시식
들러리
유실
##린데
움직인
아레나
강가
학설
고산
의뢰인
##며시
아스팔트
##row
이기심
출항
스카우트
판검사
##문고
조로
과기
권했
미륵
암담
산사태
매연
인감
어시스트
무턱대고
엄하
돌림
선불
장윤
허약
바오
내려진
악착
더디
근친
보루
레바
안구
는다며
구운
시찰
병든
샤이
도려내
##구이
여호와
KDB
머지
##축제
가발
알짜
로직스
한명숙
고속철
송영길
관동
글라스
추도
히말
##데요
소탕
일품
회자
스키장
개인택시
131
노영
##휴가
사대부
비운
싸돌
황정
특별시
부랴
흔들렸
야수
연한
부러지
황급
2700
네거티브
##성동
최면
나아졌
물든
구여
버르
식초
버그
대장암
##conom
브랜
부르주아
진주시
곀ㅋㅋ
골드만
아랍에미
아랍에미리트
권선
권세
##ash
지킨다
경도
앞당기
더구만
디딤
분대
오미
호에
205
유토피아
##다닥
규약
미식
그만둔
추수
무드
계모
준법
##포동
끼쳐
아리아
왼발
##꼴라
모면
날아갔
##일관
##수도
신기록
깽깽이
절세
끈끈
OST
순매도
조끼
##에어
오른발
김태균
율법
사칭
##비용
der
모일
밉상
연천
에이전트
뼈저리
선우
연약
폐교
염수
전태
바둑이
뒤엎
여상
프린팅
사무직
비키
열라
##나불
##따라
문전
보탰
사야
웅동
잔금
##정신
총칼
International
고을
불태우
##gl
매수세
상류층
소풍
트렌디
그람
니당
다승
안병
##통화
부츠
##테리아
FT
단종
바라본
결백
산란
op
맹박
불응
감출
##진진
무라
으리라고
이러면
2600
맹자
타살
고배
쑤시
굳히
날씬
만취
분뇨
단두
외무성
합해
All
왔으나
2800
떠올라
시그널
킨텍스
##ild
아씨
획단
교부세
겸직
흐느
히말라야
##정책
엘리자베스
립스틱
##로이
스마일
아산시
힘겨운
무용지물
서포터
부피
서식지
OP
바랬
질식
CR
구야
천체
식비
##tt
경솔
##나절
반군
컬링
부여받
TS
적패
##미사일
중하
걸으면
모셨
쉽사리
식자재
초가
천진
한입
이재민
바꿔치기
GPS
박유천
유증
풍광
의중
정신력
천식
옥외
진다면
내려올
옛말
발라드
##저곳
수십조
상투
올게
삼성카드
탕진
석유공사
노상
갖춰져
조진
흐흐
시흥시
임창
이곳저곳
강력범
버팀
그런다
임수
뜨거웠
왕족
휴전선
##르륵
연수구
망칠
찰떡
유사시
란스
낙타
스팸
함평
특별회계
하수도
##서울
##성대
고군분투
권태
바구니
놀라울
패악
픽업
결격
낸드
도망간
밥줄
퇴계
삼계
480
홍정
선수촌
세브
##투수
사모님
신조어
##하마
이종걸
안기
식중독
보신
연꽃
그림책
원희룡
총영
##탱이
스케이트
거북선
행여
##회전
##조목
##습관
우리은행
그랑프리
경건
퍼트린
단맛
발레단
라니요
부사관
꽃잎
반민
흥미진진
수로
역전승
으음
##저가
드가
서요
그린벨트
대니
더리
웃돈
기울일
시판
that
다오
추카
무서울
부영
내려와서
2100
술수
연례
제방
한의사
##잘못
식습관
제너
아무거
머리통
영등포구
이토
코스트코
승강기
분기점
##애나
리얼돌
물증
가져다주
##스피어
요미우리
드래프트
물거품
짱꼴라
##래기
##익스피어
개지
따져야
셰익스피어
커밍아웃
수난
하이에나
경재
시미
##게이트
지구대
본드
휘두
꼬치
변방
##보도
철퇴
행인
빌려서
1949
들어줄
850
억류
신동빈
색감
이학
싱크탱크
섬진
조아리
선제골
재대로
영상물
반팔
역사학
옆방
##레븐
가오
도식
카디
화전
##전입
##바바
##대죄
##불성
러스
불면
가운
가압류
다독
연설문
쇄도
독신
송전탑
달째
닷새
남궁
이세돌
모나
행정소송
제수
동호인
끈질기
와해
견적
천마
못한다고
석고대죄
이병헌
풀어내
Ge
Go
##춧가루
재상
감독관
교외
##파이어
위장전입
전광판
광산구
부식
친목
선구자
외자
주디
장단점
선발투수
뉘우치
시금
천자
애리조
매료
오래오래
개화
긍까
어벤
닥친
야욕
대물림
언론통제
트래픽
받침
끈기
##대소
올려다보
농업기술
농업기술센터
안토
Su
개운
유창
##응보
선서
볼펜
그랬었
중저가
출토
라이들
##운하
레슨
세모
여생
##35
##닐라
전병
Lond
도급
론가
엄숙
와일드
DH
흠뻑
##그림
볼링
난독증
난간
다녀도
일동
윤석민
꺾이
휴학
공고히
백운
무등
배지
##예우
두드려
게시물
남아프리카
집행정지
딸내미
인과응보
야후
지미
생화학
소국
가까웠
땅볼
##지먼트
사셨
Har
떵떵
감도
발신
임정
##을지도
매니지먼트
부쳐
소작
무기력
흡연자
박연
징하
호우
현대판
##로이드
짊어지
따먹
페르시아
IF
몰아치
전관예우
을사
소공
오롯
##ournal
빈약
선회
홍길동
##내렸
더해져
송출
남다르
말다
빈소
인포
액면
포옹
레고
급상승
외벽
어루만
리베이트
##지수
대차
옥스
절하
출가
전소
초년
포근
키워서
흑우
로웠
이성계
순결
긴데
##보증기금
고깃
삐딱
다를까
간선
교습
껄껄
놀래
기치
논증
도립
##달리
여념
##혈증
강효상
등락
역효과
공모주
##클린
동작구
매트리스
빼액
##렉터
최고위
##용품
정박
##대포
##은정
##전기
탄원서
갤럽
시제품
쐐기
혜성
문제삼
막스
부단
여보세요
포르쉐
전단지
##텔링
잃어버렸
뻔한데
스토리텔링
도맡
London
골랐
책장
온화
최인
거슬리
괜춘
##플러
노약자
##다드
1955
허울
감투
구덩이
해야겠다
시킬려고
골반
암묵
밝혀져
희곡
not
자는데
격돌
고사하고
콩고
##ft
141
잇따른
신통
팔찌
##마당
랜다
##정보
mg
빌빌
안과
괴롭혔
쉐보레
힘찬
내팽
황기
대표작
단두대
선로
어지럽히
일석
##골목
팔짱
결연
자족
불변
나았
유민
인부
휴양림
간병인
컴퓨팅
긴박
순항
리원
무참
액자
##죽일
고노
네모
페달
sbs
중략
되새기
말렸
억장
패자
##27
객체
꿀꿀
상조
치도
##위대
묘역
저물
##ool
AFC
잖냐
##ki
##호우
영영
기념비
끌어들여
기흥
동장
창시
기장군
금치
##태영
##음료
JP
쪽쪽
무수히
물으면
파전
박광
열띤
합의금
볼라고
세무서
땅바닥
쑥대밭
떠라
##사르
못생
##과이
소리지르
쏠림
아고
든게
통탄
각료
신시
신용장
구렁
이효리
##마개
버들
##진흥
집중호우
건드려
모라
병풍
산동
미대
후쿠오카
강우
딴따라
상추
유턴
해태
처해야
여야지
개새
아파하
수렁
이비
일임
Ne
##긍긍
황급히
문디
##ative
올려놓
금물
삼양
쥐뿔
메르켈
my
명재
대소
섭리
양현종
전전긍긍
괜찬
꺼야
벽지
아폴
나트륨
단층
타일
소이
##넌스
발대식
정맥
무형문화재
케냐
행패
밴쿠버
완승
관영
스트라이크
이오
조타
비석
문학관
공양
1956
꼭꼭
정력
휘둘러
전기금
미남
통풍
##85
들여놓
희희
갖은
가린
면전
##시안
프랑스어
고금리
논두렁
에센스
유목
사골
손잡고
가차
공분
시크릿
추스
의견서
제트
팬덤
원효
##현정
##딩크
##통화기금
💙💙
팽배
차가
폐차
완제품
자그마
팝콘
원청
##조림
권력욕
순창
청해
워드
헤어졌
밧줄
옹진
##바라기
뛰어다니
국제통화기금
김기현
황후
거스르
거버넌스
노량
허리케인
420
한라산
그래라
ESS
다윈
여단
천배
는고
북돋
소질
370
끌어당
각별히
경영난
싸워라
##ization
##ience
매스컴
151
히딩크
##erson
대패
흐를
손수건
산천
##상정
합니다만
비수기
cl
바꼈
살라
매미
애액
감귤
만하다
위기관리
리딩
가엾
결부
유태인
##ㅌㅋㅋ
은근슬쩍
변함없이
준우승
달려오
오븐
##슐린
찌푸리
오래가
빠져나갔
위정자
##프스키
암말
립식
살려라
한동
##95
김재규
광해군
1958
집유
여름휴가
명하
##ins
##enti
노을
핵미사일
장상
Fran
둬서
저의
부유층
싸대
흔쾌
##24
결손
빈손
미술품
아쿠아
어데
감청
마담
터짐
회고록
다른지
실망감
인슐린
##배추
굴하
정치권력
같잖
저럴까
인품
##pt
세계일보
실실
##퍼트
투자처
테이크
학생회
소개팅
허리띠
위키
##부랴
진보신
도통
항산
기다린
왈가
주립
##마루
타진
시드니
노브라
엽기
벼룩
##red
붙잡혔
쏟아부
로열티
한다거나
갈게
바부
발해
새낀
센텀
외칠
임팩트
조재
아악
애처
줏대
급행
JY
일텐데
과천시
##쨋든
아프간
리빙
일률
구도심
소나타
걷잡
공급량
죄의식
##첨단
달아났
모교
스목
노원구
##obal
입항
##ris
넘어간다
야경
이재오
거듭날
바리스타
고위층
MR
포탄
이상민
부랴부랴
내복
별짓
샤프
스커트
이눔
척척
튀겨
장보고
최첨단
##28
내치
간파
빨려
##위원
그리스도인
자랄
카네
진두
타오르
탈법
##34
나참
##질렀
통념
섴ㅋㅋ
이스타항공
갈겨
강추
모략
졸음
하강
북풍
체자
어쨋든
GO
농기계
되물
미명
##부글
멸시
우승컵
##동욱
진부
칫솔
##스러운
물씬
조목조목
먹힐
##라마
sc
##킨스
틈틈이
기권
대파
사의
지영
물놀이
직진
헤아릴
어뢰
업장
급박
양주시
##돌아다니
부원장
체납자
보르
밝힌다
게릴라
##신호
훈련장
엔젤
떠들썩
##럴드
부글부글
평점
##개치
리플
내보냈
밤하늘
정해서
##교사
부셔
자청
##입국
불합
에잇
네이처
궁합
##임새
미래형
재조명
경남은행
계략
bl
전면전
MA
런닝
작당
달려왔
찬바람
뭘까요
우환
패션쇼
초인
##67
으리라는
이채
돋보인다
##모사
박시
증권가
지켜봐
관저
초록색
분하
##DC
##샅이
거린
거저
혈맹
##는데도
둘러싸여
종주
수재
2050
황산
##소스
교육법
여주인공
인걸
NA
빅토리아
맞짱
훑어
인강
##조작
창업주
샅샅이
봐줄
양산시
노이
##김치
거덩
제후
##위생
비아냥
정통부
도스
기지국
메디컬
꾸몄
엿같
대상지
후려치
정일
[unused000]
[unused001]
[unused002]
[unused003]
[unused004]
[unused005]
[unused006]
[unused007]
[unused008]
[unused009]
[unused010]
[unused011]
[unused012]
[unused013]
[unused014]
[unused015]
[unused016]
[unused017]
[unused018]
[unused019]
[unused020]
[unused021]
[unused022]
[unused023]
[unused024]
[unused025]
[unused026]
[unused027]
[unused028]
[unused029]
[unused030]
[unused031]
[unused032]
[unused033]
[unused034]
[unused035]
[unused036]
[unused037]
[unused038]
[unused039]
[unused040]
[unused041]
[unused042]
[unused043]
[unused044]
[unused045]
[unused046]
[unused047]
[unused048]
[unused049]
[unused050]
[unused051]
[unused052]
[unused053]
[unused054]
[unused055]
[unused056]
[unused057]
[unused058]
[unused059]
[unused060]
[unused061]
[unused062]
[unused063]
[unused064]
[unused065]
[unused066]
[unused067]
[unused068]
[unused069]
[unused070]
[unused071]
[unused072]
[unused073]
[unused074]
[unused075]
[unused076]
[unused077]
[unused078]
[unused079]
[unused080]
[unused081]
[unused082]
[unused083]
[unused084]
[unused085]
[unused086]
[unused087]
[unused088]
[unused089]
[unused090]
[unused091]
[unused092]
[unused093]
[unused094]
[unused095]
[unused096]
[unused097]
[unused098]
[unused099]
[unused100]
[unused101]
[unused102]
[unused103]
[unused104]
[unused105]
[unused106]
[unused107]
[unused108]
[unused109]
[unused110]
[unused111]
[unused112]
[unused113]
[unused114]
[unused115]
[unused116]
[unused117]
[unused118]
[unused119]
[unused120]
[unused121]
[unused122]
[unused123]
[unused124]
[unused125]
[unused126]
[unused127]
[unused128]
[unused129]
[unused130]
[unused131]
[unused132]
[unused133]
[unused134]
[unused135]
[unused136]
[unused137]
[unused138]
[unused139]
[unused140]
[unused141]
[unused142]
[unused143]
[unused144]
[unused145]
[unused146]
[unused147]
[unused148]
[unused149]
[unused150]
[unused151]
[unused152]
[unused153]
[unused154]
[unused155]
[unused156]
[unused157]
[unused158]
[unused159]
[unused160]
[unused161]
[unused162]
[unused163]
[unused164]
[unused165]
[unused166]
[unused167]
[unused168]
[unused169]
[unused170]
[unused171]
[unused172]
[unused173]
[unused174]
[unused175]
[unused176]
[unused177]
[unused178]
[unused179]
[unused180]
[unused181]
[unused182]
[unused183]
[unused184]
[unused185]
[unused186]
[unused187]
[unused188]
[unused189]
[unused190]
[unused191]
[unused192]
[unused193]
[unused194]
[unused195]
[unused196]
[unused197]
[unused198]
[unused199]